unsigned char actor_tflite[] = {
  0x24, 0x00, 0x00, 0x00, 0x54, 0x46, 0x4c, 0x33, 0x00, 0x00, 0x00, 0x00,
  0x00, 0x00, 0x00, 0x00, 0x14, 0x00, 0x20, 0x00, 0x04, 0x00, 0x08, 0x00,
  0x0c, 0x00, 0x10, 0x00, 0x14, 0x00, 0x00, 0x00, 0x18, 0x00, 0x1c, 0x00,
  0x14, 0x00, 0x00, 0x00, 0x03, 0x00, 0x00, 0x00, 0x28, 0x24, 0x00, 0x00,
  0xb8, 0x1a, 0x00, 0x00, 0xa0, 0x1a, 0x00, 0x00, 0xac, 0x00, 0x00, 0x00,
  0x74, 0x00, 0x00, 0x00, 0x04, 0x00, 0x00, 0x00, 0x01, 0x00, 0x00, 0x00,
  0x04, 0x00, 0x00, 0x00, 0x3e, 0xe3, 0xff, 0xff, 0x44, 0x00, 0x00, 0x00,
  0x1c, 0x00, 0x00, 0x00, 0x04, 0x00, 0x00, 0x00, 0x0f, 0x00, 0x00, 0x00,
  0x73, 0x65, 0x72, 0x76, 0x69, 0x6e, 0x67, 0x5f, 0x64, 0x65, 0x66, 0x61,
  0x75, 0x6c, 0x74, 0x00, 0x01, 0x00, 0x00, 0x00, 0x04, 0x00, 0x00, 0x00,
  0xc0, 0xff, 0xff, 0xff, 0x08, 0x00, 0x00, 0x00, 0x14, 0x00, 0x00, 0x00,
  0x0b, 0x00, 0x00, 0x00, 0x63, 0x6f, 0x6e, 0x63, 0x61, 0x74, 0x65, 0x6e,
  0x61, 0x74, 0x65, 0x00, 0x01, 0x00, 0x00, 0x00, 0x04, 0x00, 0x00, 0x00,
  0x1e, 0xe5, 0xff, 0xff, 0x04, 0x00, 0x00, 0x00, 0x07, 0x00, 0x00, 0x00,
  0x69, 0x6e, 0x70, 0x75, 0x74, 0x5f, 0x31, 0x00, 0x01, 0x00, 0x00, 0x00,
  0x0c, 0x00, 0x00, 0x00, 0x08, 0x00, 0x0c, 0x00, 0x04, 0x00, 0x08, 0x00,
  0x08, 0x00, 0x00, 0x00, 0x08, 0x00, 0x00, 0x00, 0x16, 0x00, 0x00, 0x00,
  0x13, 0x00, 0x00, 0x00, 0x6d, 0x69, 0x6e, 0x5f, 0x72, 0x75, 0x6e, 0x74,
  0x69, 0x6d, 0x65, 0x5f, 0x76, 0x65, 0x72, 0x73, 0x69, 0x6f, 0x6e, 0x00,
  0x17, 0x00, 0x00, 0x00, 0xe4, 0x19, 0x00, 0x00, 0xd0, 0x19, 0x00, 0x00,
  0xb4, 0x19, 0x00, 0x00, 0x90, 0x19, 0x00, 0x00, 0x7c, 0x18, 0x00, 0x00,
  0x68, 0x17, 0x00, 0x00, 0x54, 0x15, 0x00, 0x00, 0x40, 0x05, 0x00, 0x00,
  0x2c, 0x03, 0x00, 0x00, 0x18, 0x01, 0x00, 0x00, 0x04, 0x01, 0x00, 0x00,
  0xf8, 0x00, 0x00, 0x00, 0xe4, 0x00, 0x00, 0x00, 0xd0, 0x00, 0x00, 0x00,
  0xbc, 0x00, 0x00, 0x00, 0xa8, 0x00, 0x00, 0x00, 0x94, 0x00, 0x00, 0x00,
  0x80, 0x00, 0x00, 0x00, 0x6c, 0x00, 0x00, 0x00, 0x58, 0x00, 0x00, 0x00,
  0x44, 0x00, 0x00, 0x00, 0x30, 0x00, 0x00, 0x00, 0x04, 0x00, 0x00, 0x00,
  0xc6, 0xe5, 0xff, 0xff, 0x04, 0x00, 0x00, 0x00, 0x10, 0x00, 0x00, 0x00,
  0x31, 0x2e, 0x31, 0x34, 0x2e, 0x30, 0x00, 0x00, 0x00, 0x00, 0x00, 0x00,
  0x00, 0x00, 0x00, 0x00, 0x00, 0x00, 0x00, 0x00, 0x00, 0x00, 0x00, 0x00,
  0x00, 0x00, 0x00, 0x00, 0xe4, 0xdc, 0xff, 0xff, 0x00, 0x00, 0x00, 0x00,
  0x00, 0x00, 0x00, 0x00, 0x00, 0x00, 0x00, 0x00, 0xf4, 0xdc, 0xff, 0xff,
  0x00, 0x00, 0x00, 0x00, 0x00, 0x00, 0x00, 0x00, 0x00, 0x00, 0x00, 0x00,
  0x04, 0xdd, 0xff, 0xff, 0x00, 0x00, 0x00, 0x00, 0x00, 0x00, 0x00, 0x00,
  0x00, 0x00, 0x00, 0x00, 0x14, 0xdd, 0xff, 0xff, 0x00, 0x00, 0x00, 0x00,
  0x00, 0x00, 0x00, 0x00, 0x00, 0x00, 0x00, 0x00, 0x24, 0xdd, 0xff, 0xff,
  0x00, 0x00, 0x00, 0x00, 0x00, 0x00, 0x00, 0x00, 0x00, 0x00, 0x00, 0x00,
  0x34, 0xdd, 0xff, 0xff, 0x00, 0x00, 0x00, 0x00, 0x00, 0x00, 0x00, 0x00,
  0x00, 0x00, 0x00, 0x00, 0x44, 0xdd, 0xff, 0xff, 0x00, 0x00, 0x00, 0x00,
  0x00, 0x00, 0x00, 0x00, 0x00, 0x00, 0x00, 0x00, 0x54, 0xdd, 0xff, 0xff,
  0x00, 0x00, 0x00, 0x00, 0x00, 0x00, 0x00, 0x00, 0x00, 0x00, 0x00, 0x00,
  0x64, 0xdd, 0xff, 0xff, 0x00, 0x00, 0x00, 0x00, 0x00, 0x00, 0x00, 0x00,
  0x00, 0x00, 0x00, 0x00, 0x74, 0xdd, 0xff, 0xff, 0x00, 0x00, 0x00, 0x00,
  0x00, 0x00, 0x00, 0x00, 0x00, 0x00, 0x00, 0x00, 0x84, 0xdd, 0xff, 0xff,
  0x00, 0x00, 0x00, 0x00, 0x96, 0xe6, 0xff, 0xff, 0x04, 0x00, 0x00, 0x00,
  0x04, 0x00, 0x00, 0x00, 0x00, 0x00, 0x80, 0x3f, 0xa6, 0xe6, 0xff, 0xff,
  0x04, 0x00, 0x00, 0x00, 0x00, 0x02, 0x00, 0x00, 0xb5, 0xb8, 0xdb, 0x3e,
  0xef, 0x9c, 0x1d, 0xbe, 0x88, 0xb5, 0xe8, 0x3c, 0x75, 0xfa, 0xa3, 0x3e,
  0x97, 0xb0, 0xc8, 0xbd, 0xc7, 0xf4, 0x99, 0xbe, 0xa8, 0x98, 0xb6, 0xbe,
  0x48, 0xe2, 0xd8, 0xbd, 0x17, 0x07, 0x71, 0x3e, 0xb5, 0xbb, 0xf5, 0x3e,
  0x3a, 0xf4, 0xfc, 0x3e, 0x51, 0x78, 0xdc, 0xbe, 0xfc, 0x87, 0xd8, 0xbe,
  0x6a, 0xa9, 0x6d, 0x3d, 0xf7, 0x2d, 0xa8, 0x3e, 0xbb, 0xe3, 0x83, 0x3e,
  0x6e, 0x24, 0x26, 0x3e, 0xe9, 0xf6, 0xe6, 0x3d, 0x59, 0xab, 0xdc, 0x3e,
  0xb7, 0xb1, 0x3e, 0xbe, 0x7d, 0x79, 0xfc, 0x3d, 0xd9, 0x2d, 0xe4, 0xbe,
  0x49, 0xbc, 0xf6, 0xbe, 0x95, 0x74, 0xd3, 0x3e, 0xc1, 0x49, 0x8d, 0x3d,
  0xe6, 0xc2, 0x79, 0xbe, 0xee, 0x03, 0x58, 0x3d, 0x76, 0xb2, 0xa8, 0x3d,
  0x16, 0xae, 0x21, 0xbe, 0x9c, 0xdc, 0x06, 0x3b, 0x2b, 0x31, 0xa9, 0xbe,
  0xf8, 0x2c, 0x66, 0xbe, 0x31, 0x6e, 0xb8, 0x3c, 0x15, 0x20, 0xda, 0x3e,
  0xa7, 0xfe, 0xcc, 0xbe, 0x54, 0x76, 0x8e, 0x3d, 0x97, 0x8f, 0x56, 0xbd,
  0x3e, 0x14, 0x38, 0x3d, 0x1e, 0x58, 0x91, 0xbe, 0x0a, 0xea, 0xbf, 0xbe,
  0x70, 0xa6, 0x35, 0xbe, 0x77, 0xbc, 0x63, 0xbe, 0xba, 0x18, 0x5f, 0xbd,
  0xcd, 0x5a, 0xa4, 0xbe, 0x07, 0x87, 0x03, 0x3e, 0xda, 0x06, 0x8d, 0x3e,
  0xec, 0x0d, 0xf4, 0xbc, 0xe1, 0x7f, 0x29, 0xbe, 0x55, 0x1b, 0xdc, 0xbc,
  0x73, 0xb2, 0x02, 0x3f, 0x1c, 0xe7, 0x89, 0xbe, 0xcd, 0xbd, 0x52, 0x3e,
  0x51, 0xcd, 0xb6, 0x3d, 0x1a, 0x56, 0x91, 0xbe, 0x60, 0x08, 0xf7, 0xbd,
  0x74, 0x8a, 0xff, 0x3e, 0xa8, 0x1b, 0xff, 0xbe, 0x3e, 0x82, 0xaa, 0xbe,
  0xd2, 0x6b, 0xe1, 0x3d, 0x42, 0x6d, 0xbc, 0xbe, 0x33, 0x0a, 0xbd, 0x3e,
  0xa9, 0x6d, 0xea, 0x3e, 0xcb, 0x14, 0x00, 0x3f, 0x4e, 0xb8, 0xfe, 0x3d,
  0x8d, 0x0f, 0x01, 0x3f, 0x9f, 0xee, 0x99, 0xbe, 0x0a, 0xfc, 0x3b, 0x3e,
  0xd7, 0x90, 0xf8, 0x3e, 0x24, 0xe4, 0x9a, 0xbe, 0x81, 0x53, 0xe5, 0xbe,
  0x09, 0x07, 0xb1, 0xbe, 0x05, 0x47, 0xd3, 0xbe, 0x18, 0x6a, 0xea, 0x3e,
  0x62, 0x71, 0xb2, 0xbd, 0xf2, 0x17, 0xdd, 0x3e, 0x01, 0xe6, 0xe7, 0xbe,
  0x82, 0xc0, 0x2a, 0xbe, 0xe6, 0x83, 0xbf, 0x3d, 0x53, 0x42, 0xf3, 0x3e,
  0x9a, 0x26, 0x7b, 0xbd, 0x0e, 0xb5, 0x29, 0x3e, 0x58, 0x1c, 0x69, 0x3e,
  0x90, 0x8d, 0xd5, 0x3e, 0xdf, 0xe0, 0xf5, 0xbe, 0xdb, 0xb0, 0x02, 0x3e,
  0x3d, 0x02, 0x1f, 0xbe, 0x6e, 0x05, 0x8e, 0xbe, 0xae, 0xa9, 0xde, 0x3e,
  0x3d, 0xe6, 0x4f, 0x3e, 0x07, 0x46, 0x00, 0xbf, 0x73, 0x50, 0xf7, 0x3e,
  0xea, 0x2a, 0xda, 0xbe, 0xef, 0xac, 0xdb, 0xbe, 0x82, 0x37, 0xed, 0xbe,
  0x22, 0x6c, 0xcd, 0xbe, 0x25, 0xa4, 0xf4, 0xbe, 0xc6, 0xc6, 0x8a, 0xbe,
  0xf3, 0x4c, 0x3c, 0x3d, 0x33, 0x32, 0xcd, 0xbe, 0x96, 0xe2, 0x45, 0x3e,
  0x90, 0x6f, 0xf0, 0xbe, 0x7b, 0xbd, 0xe0, 0xbe, 0xb5, 0x04, 0x84, 0xbe,
  0x58, 0x04, 0x98, 0xbe, 0x15, 0x2a, 0xaf, 0x3c, 0x28, 0xda, 0xbe, 0xbd,
  0x75, 0x8c, 0x09, 0xbe, 0xc2, 0x8c, 0x04, 0xbe, 0xb4, 0xf7, 0xd3, 0x3e,
  0x30, 0xc5, 0x33, 0x3e, 0xc7, 0x8f, 0x42, 0xbe, 0x27, 0x77, 0x9f, 0xbe,
  0xad, 0x20, 0x40, 0x3d, 0x29, 0x59, 0xb5, 0xbc, 0x3e, 0x03, 0xb2, 0xbe,
  0x13, 0xea, 0xb1, 0x3e, 0xe8, 0x09, 0x19, 0x3e, 0x12, 0xa3, 0x0a, 0xbe,
  0x19, 0x8f, 0x5f, 0xbe, 0xe4, 0x90, 0xf7, 0x3e, 0x3b, 0xa1, 0xc5, 0x3d,
  0x29, 0x6e, 0xf6, 0xbe, 0x07, 0x79, 0xa0, 0x3c, 0x40, 0x33, 0x7f, 0xbe,
  0x70, 0x33, 0xaa, 0x3d, 0xd3, 0xdb, 0x19, 0xb9, 0x55, 0xe7, 0x63, 0x3e,
  0x24, 0x7b, 0x8a, 0x3e, 0x00, 0x00, 0x00, 0x00, 0xb6, 0xe8, 0xff, 0xff,
  0x04, 0x00, 0x00, 0x00, 0x00, 0x02, 0x00, 0x00, 0xe2, 0xaf, 0x2f, 0x3e,
  0x36, 0x00, 0xd5, 0x3d, 0x28, 0x86, 0x47, 0xbe, 0x3d, 0x09, 0x5b, 0x3d,
  0x73, 0x71, 0x16, 0x3e, 0x66, 0xb8, 0xe8, 0xbc, 0x23, 0x03, 0x89, 0xbd,
  0xdb, 0x2d, 0x1f, 0x3e, 0xa3, 0x12, 0xec, 0xbc, 0x39, 0x50, 0x67, 0x3e,
  0xdc, 0x56, 0x7b, 0x3e, 0x94, 0x2b, 0x2c, 0xbe, 0xe0, 0xcb, 0x11, 0xbe,
  0x18, 0x33, 0x26, 0xbe, 0xdd, 0x42, 0x3d, 0x3d, 0xb2, 0x4b, 0x50, 0x3e,
  0x7e, 0xb3, 0x9b, 0xbd, 0xdd, 0xb2, 0xec, 0xbd, 0x12, 0x78, 0x14, 0x3e,
  0x21, 0xf1, 0x90, 0x3d, 0x5c, 0xa7, 0xdc, 0xbd, 0x29, 0x79, 0x29, 0xbe,
  0x33, 0xd5, 0x66, 0xbe, 0xb9, 0x0c, 0x11, 0x3e, 0x42, 0xc9, 0x25, 0xbe,
  0x97, 0xd8, 0x9a, 0x3c, 0x13, 0x61, 0x5b, 0xbe, 0x7d, 0x51, 0xa9, 0x3e,
  0x29, 0x2b, 0xc2, 0x3d, 0xa6, 0x39, 0x7f, 0x3e, 0x28, 0xba, 0x41, 0xbd,
  0xc3, 0x09, 0x4d, 0x3d, 0x4a, 0x18, 0x75, 0x3e, 0xf1, 0x82, 0x39, 0x3e,
  0x0d, 0x57, 0x0d, 0xbe, 0x5c, 0xe2, 0x04, 0xbe, 0x0e, 0x2d, 0x50, 0x3e,
  0x5a, 0x47, 0x96, 0x3e, 0x34, 0x5c, 0xe9, 0xbc, 0x1b, 0x3f, 0xc9, 0xbd,
  0x54, 0xef, 0x08, 0xbc, 0xe3, 0x27, 0xed, 0x3c, 0x07, 0xad, 0x3d, 0x3e,
  0x92, 0x08, 0x73, 0xbd, 0x24, 0x5a, 0xf8, 0xbd, 0x7c, 0x7f, 0x13, 0x3c,
  0x2e, 0xe0, 0x47, 0x3e, 0x43, 0x3d, 0xbe, 0x3d, 0x0b, 0xde, 0x1e, 0x3e,
  0x16, 0xf4, 0x81, 0x3e, 0xb2, 0x39, 0x54, 0x3b, 0x6c, 0x93, 0x93, 0xbd,
  0xee, 0x2e, 0xca, 0xbd, 0x61, 0xc1, 0xe0, 0xbc, 0xbe, 0x7b, 0xef, 0x3d,
  0xf0, 0xba, 0x66, 0x3e, 0x7c, 0xe8, 0x86, 0xbe, 0x14, 0xa6, 0x8e, 0xbd,
  0x71, 0x12, 0xf9, 0xbd, 0x88, 0xd2, 0xaa, 0xbd, 0x98, 0xef, 0xe1, 0x3d,
  0x95, 0x08, 0x42, 0x3e, 0x5c, 0x02, 0x5f, 0x3e, 0x31, 0x2a, 0xf8, 0xbd,
  0x52, 0x83, 0x6a, 0x3e, 0xb1, 0xf0, 0xfa, 0xbc, 0x45, 0x0c, 0x93, 0xbd,
  0xfb, 0x57, 0x5d, 0x3e, 0x8b, 0xd9, 0xf7, 0xbc, 0xf6, 0x6d, 0x29, 0xbe,
  0x6e, 0x25, 0xc4, 0xbd, 0xc3, 0xcc, 0x2d, 0xbe, 0x8d, 0xce, 0x38, 0x3e,
  0xea, 0xf9, 0xb0, 0xbe, 0xd3, 0x13, 0x24, 0x3e, 0x1c, 0x57, 0x3d, 0xbe,
  0x84, 0x6e, 0xeb, 0x3c, 0x45, 0x6f, 0x23, 0xbe, 0x7b, 0x87, 0x50, 0x3e,
  0xae, 0x3c, 0x98, 0xbc, 0xd7, 0x7f, 0xe4, 0xbd, 0xc6, 0xa4, 0xbc, 0xbc,
  0x29, 0x88, 0x1e, 0x3e, 0x61, 0x30, 0x4f, 0xbe, 0x3a, 0xae, 0xfb, 0xbd,
  0x41, 0xfb, 0x31, 0x3d, 0xb1, 0x0d, 0xaf, 0xbb, 0x53, 0x6f, 0x24, 0x3e,
  0x0f, 0xa4, 0x66, 0xbd, 0xab, 0x38, 0x6b, 0xbe, 0x18, 0x4a, 0x60, 0x3e,
  0x21, 0xe3, 0x2a, 0xbe, 0x2e, 0x77, 0x1e, 0xbe, 0x46, 0xa9, 0x4a, 0xbe,
  0x60, 0x1e, 0x39, 0xbe, 0x99, 0xeb, 0x4a, 0xbe, 0xaa, 0x3c, 0x13, 0xbd,
  0xab, 0xcd, 0x6b, 0xbe, 0x51, 0xba, 0x05, 0xbe, 0x00, 0x11, 0x32, 0xbd,
  0x09, 0x91, 0x4b, 0xbe, 0xe4, 0x1a, 0x37, 0xbe, 0x5f, 0x00, 0xd4, 0x3c,
  0xf3, 0xc4, 0x9b, 0xbc, 0xc0, 0x14, 0x4c, 0x3e, 0xd3, 0x9b, 0x35, 0x3e,
  0x06, 0x22, 0x00, 0x3e, 0xfd, 0xec, 0x07, 0x3e, 0xfe, 0xeb, 0x12, 0x3e,
  0xd4, 0xfc, 0x88, 0x3b, 0x4e, 0xc8, 0x7c, 0x3d, 0x24, 0x42, 0x38, 0xbd,
  0xba, 0x6c, 0x68, 0x3e, 0x8e, 0x27, 0x93, 0xbe, 0x64, 0xe7, 0xa1, 0xbd,
  0x21, 0x4e, 0xd1, 0x3d, 0xbe, 0x5f, 0x91, 0xbd, 0x9c, 0x83, 0x0a, 0x3e,
  0xd7, 0xb6, 0x6e, 0x3d, 0x31, 0x77, 0x5f, 0x3e, 0xf1, 0x77, 0xa2, 0x3e,
  0x98, 0x1e, 0x51, 0xbe, 0xaa, 0x1a, 0x61, 0xbe, 0x80, 0x04, 0xb1, 0xbc,
  0x37, 0x77, 0x3a, 0xbe, 0x1d, 0xef, 0x76, 0xbe, 0x2c, 0x58, 0xc8, 0x3b,
  0xfc, 0x32, 0x09, 0xbb, 0x00, 0x00, 0x00, 0x00, 0xc6, 0xea, 0xff, 0xff,
  0x04, 0x00, 0x00, 0x00, 0x00, 0x10, 0x00, 0x00, 0x36, 0x4e, 0x49, 0x5e,
  0xe0, 0xed, 0xea, 0xca, 0x3d, 0x28, 0x23, 0xd7, 0xba, 0xbb, 0x37, 0x56,
  0xec, 0xb8, 0xc9, 0x4b, 0x48, 0x17, 0xbc, 0x0b, 0x0b, 0xf2, 0xc6, 0x46,
  0x4c, 0xca, 0xc0, 0x3a, 0xea, 0xf8, 0xf2, 0xbe, 0xe2, 0x19, 0xd7, 0x11,
  0x26, 0xd8, 0x4b, 0x02, 0x53, 0xe5, 0xc9, 0x46, 0xc8, 0xae, 0xc6, 0x04,
  0x54, 0x27, 0x37, 0x21, 0x3b, 0xea, 0x16, 0x13, 0x20, 0x15, 0xe2, 0x3c,
  0x6d, 0xcb, 0xde, 0xe8, 0x19, 0x3f, 0x9e, 0x6b, 0x06, 0x29, 0xcb, 0x03,
  0x46, 0xe2, 0xbd, 0xb1, 0xf4, 0xdd, 0xdd, 0xc4, 0xfa, 0xb8, 0xe5, 0xfd,
  0xdf, 0x32, 0x3c, 0xd5, 0x39, 0x0a, 0xc8, 0x09, 0x39, 0xcc, 0xd3, 0xf6,
  0x07, 0x60, 0xdc, 0xd6, 0xc8, 0x2a, 0xbd, 0x0b, 0xa2, 0xaa, 0x31, 0x11,
  0x51, 0x65, 0xb3, 0x23, 0x16, 0x9e, 0xe1, 0x0f, 0x1f, 0x38, 0xb8, 0xbc,
  0xd7, 0xde, 0x08, 0xb1, 0x0c, 0x49, 0xef, 0x42, 0x28, 0x21, 0x05, 0xcf,
  0xed, 0x63, 0xd4, 0x47, 0x0e, 0x02, 0x60, 0xcb, 0xf0, 0xbd, 0x35, 0x25,
  0xac, 0xf3, 0x00, 0xfb, 0xf1, 0xf9, 0x23, 0xfd, 0xff, 0x2b, 0x2f, 0xf5,
  0xe0, 0x3e, 0x59, 0xf2, 0x05, 0xc2, 0xc5, 0x21, 0xd0, 0x01, 0x48, 0x0a,
  0xfb, 0x08, 0xd8, 0xd2, 0xa6, 0xca, 0x52, 0x1d, 0x41, 0xc8, 0xe0, 0x22,
  0x4a, 0xcc, 0xeb, 0x49, 0xc7, 0xb8, 0xd1, 0xef, 0xdc, 0xdd, 0x09, 0xf5,
  0xe5, 0xd8, 0xf3, 0x0f, 0x0e, 0xe2, 0x34, 0x28, 0xa7, 0x31, 0x54, 0x00,
  0x28, 0xd5, 0xb4, 0xcf, 0xe7, 0x55, 0x0f, 0x02, 0x0b, 0xe0, 0xf6, 0x19,
  0xae, 0x11, 0xe6, 0xc0, 0x2e, 0xce, 0x5b, 0xc9, 0x65, 0x4f, 0x13, 0x2f,
  0xd8, 0x1c, 0x5e, 0x11, 0x04, 0x0b, 0x33, 0x2f, 0xfa, 0xc1, 0x35, 0xb5,
  0x2c, 0xfa, 0x24, 0xf6, 0x15, 0x29, 0x45, 0x00, 0x13, 0xd8, 0xc4, 0x1e,
  0xde, 0xaf, 0xba, 0x93, 0x34, 0x2b, 0xc2, 0x57, 0x10, 0xc3, 0x03, 0xf7,
  0x39, 0x3d, 0xb7, 0xd0, 0x67, 0xe6, 0x52, 0xfa, 0x35, 0x17, 0x0f, 0xf6,
  0xc5, 0x33, 0xd7, 0xf6, 0x4b, 0xe5, 0xfa, 0x0a, 0xa3, 0x0f, 0xae, 0xc9,
  0x1d, 0xf2, 0x5e, 0xf7, 0x36, 0x2d, 0xa1, 0xe5, 0x1e, 0xd6, 0xe4, 0xac,
  0xef, 0xe7, 0x9a, 0xcc, 0x16, 0xbb, 0xdb, 0xf2, 0x68, 0x1e, 0x0f, 0xde,
  0x18, 0x4b, 0xd0, 0xa6, 0x06, 0xb7, 0xbb, 0x1f, 0xd3, 0x45, 0x30, 0x42,
  0x12, 0xfc, 0x0b, 0x19, 0xd4, 0x63, 0xb6, 0x32, 0x01, 0xf2, 0x22, 0x2e,
  0x5c, 0x49, 0x41, 0xe8, 0xf9, 0x4f, 0x1d, 0x07, 0x4d, 0x18, 0xfa, 0xa3,
  0x06, 0xf4, 0x3e, 0xdf, 0xd1, 0xb7, 0xfa, 0xdc, 0xbd, 0xb3, 0xac, 0xd6,
  0x18, 0x06, 0x13, 0xb1, 0xe0, 0x2e, 0xe5, 0x3d, 0x29, 0x2b, 0xf9, 0x2b,
  0xfc, 0xc9, 0x0b, 0xd3, 0xc9, 0x10, 0x3d, 0x01, 0x2c, 0xca, 0xd0, 0x2d,
  0xb9, 0xd3, 0x3a, 0x06, 0xdf, 0x3e, 0x35, 0xb8, 0xcb, 0x3d, 0xe7, 0xef,
  0x4d, 0xc7, 0x38, 0x2e, 0x47, 0xcd, 0xf8, 0xdf, 0x25, 0xec, 0xca, 0x21,
  0x1c, 0x1c, 0x0b, 0x10, 0xc5, 0x40, 0xd0, 0x2c, 0xc4, 0xdd, 0x25, 0xb5,
  0xf3, 0xa7, 0x24, 0xbd, 0xc5, 0xec, 0x01, 0x34, 0x1c, 0x3b, 0x33, 0xde,
  0xd7, 0x33, 0xda, 0xc2, 0x00, 0x22, 0xd9, 0xf4, 0x29, 0x55, 0x1b, 0x2a,
  0x57, 0xf2, 0x49, 0xe0, 0xd3, 0x43, 0x0b, 0x4c, 0x37, 0x2e, 0x05, 0xc3,
  0x37, 0x30, 0x02, 0xc6, 0x13, 0x00, 0xc3, 0xce, 0xc0, 0x38, 0x26, 0xc8,
  0xb7, 0xe3, 0xfa, 0x15, 0x11, 0xe2, 0x2a, 0xb1, 0x31, 0x3c, 0xcd, 0x4f,
  0xbe, 0xfa, 0xdf, 0x31, 0xcf, 0xd2, 0xbb, 0xea, 0x23, 0xf4, 0xc4, 0xa6,
  0x5a, 0x28, 0x36, 0xc7, 0xaa, 0xec, 0xe6, 0x33, 0x26, 0x04, 0x0e, 0x00,
  0x36, 0x4b, 0x38, 0xc2, 0x16, 0x3e, 0x4c, 0xcc, 0xfe, 0xae, 0x09, 0xb0,
  0xc5, 0xae, 0x33, 0xdf, 0x34, 0x45, 0x3f, 0x13, 0xc4, 0xf1, 0xad, 0xfc,
  0x20, 0x0b, 0xd0, 0x3d, 0x32, 0xed, 0x29, 0x3c, 0x12, 0x09, 0xef, 0x05,
  0x0b, 0xb0, 0xf5, 0x09, 0x28, 0xca, 0x93, 0x02, 0x1b, 0xe2, 0xc6, 0x3d,
  0x30, 0x4b, 0xfe, 0xf5, 0xc1, 0x27, 0x41, 0x2f, 0xce, 0x3b, 0x4f, 0xab,
  0xdb, 0xb8, 0x16, 0x5b, 0x2b, 0xb0, 0x50, 0x47, 0xd4, 0xc0, 0x63, 0xd6,
  0xd6, 0x42, 0xd5, 0xb8, 0xca, 0xe6, 0x32, 0x3a, 0xc6, 0xa3, 0xc9, 0xf4,
  0xa3, 0x1e, 0xd0, 0x2d, 0x3c, 0x0c, 0x98, 0xdb, 0xd5, 0xbb, 0x20, 0x0d,
  0xac, 0x06, 0x09, 0x5b, 0xfe, 0x31, 0x58, 0xc6, 0x58, 0x24, 0xd4, 0xd9,
  0xfc, 0x1f, 0x64, 0x69, 0xc6, 0xe0, 0x3a, 0x03, 0xd1, 0x1b, 0x39, 0xcd,
  0xfe, 0x50, 0x3f, 0xae, 0xa0, 0xc8, 0x00, 0x3e, 0xa7, 0x0c, 0xe4, 0x42,
  0xdd, 0x58, 0x55, 0xee, 0xae, 0x36, 0x22, 0xe1, 0xa6, 0x00, 0x2f, 0xa3,
  0x10, 0x25, 0x4e, 0xe7, 0xa6, 0xa1, 0xb7, 0xac, 0xdf, 0x60, 0x24, 0x16,
  0xdc, 0xb7, 0xad, 0x39, 0xde, 0xab, 0x10, 0xec, 0x10, 0xcb, 0xcf, 0xad,
  0x11, 0xcb, 0xee, 0xcf, 0x29, 0x05, 0x4d, 0x34, 0xc4, 0x49, 0xfc, 0xba,
  0x3f, 0xba, 0x4e, 0xb8, 0x34, 0xfa, 0x24, 0xce, 0xc9, 0x45, 0x37, 0xc4,
  0xc0, 0xf5, 0x07, 0x18, 0xc6, 0xae, 0xd9, 0xf0, 0x20, 0x35, 0xaa, 0x1c,
  0x4c, 0xf9, 0xf2, 0xbe, 0xce, 0x32, 0x18, 0x20, 0xcd, 0x59, 0xf6, 0x0b,
  0x40, 0xc6, 0x55, 0xe4, 0xc8, 0x47, 0x3d, 0x20, 0xc7, 0xb8, 0xab, 0x41,
  0xeb, 0x3c, 0xe2, 0x00, 0xe1, 0x3c, 0xdf, 0x02, 0xb6, 0xb2, 0xe6, 0xc3,
  0xca, 0xbf, 0x22, 0xe5, 0x53, 0xf3, 0x02, 0xc2, 0x44, 0x20, 0x31, 0xed,
  0x32, 0x09, 0xee, 0x2f, 0x56, 0x1c, 0x23, 0xdb, 0xf0, 0xd8, 0x07, 0xe5,
  0x2f, 0x12, 0xa3, 0x5a, 0xde, 0xd2, 0xaa, 0x42, 0xfc, 0x61, 0xe7, 0xa9,
  0x0b, 0xfb, 0xdf, 0x3b, 0x35, 0xf1, 0x02, 0x0c, 0xa2, 0xd3, 0x2b, 0x31,
  0x68, 0xcb, 0x22, 0xe6, 0x56, 0x0f, 0xfc, 0x4d, 0xba, 0x1b, 0x5b, 0xc5,
  0xfb, 0x45, 0xa8, 0xe5, 0xf3, 0x0e, 0x95, 0x9a, 0x65, 0x4c, 0xcb, 0xec,
  0xd8, 0xa6, 0xaa, 0xe6, 0x4c, 0x0c, 0x2d, 0x99, 0x3c, 0x0e, 0x02, 0xfd,
  0xcb, 0xfa, 0x0d, 0xb8, 0xad, 0xe8, 0x23, 0x2c, 0xc1, 0x18, 0x3b, 0x29,
  0xa9, 0xb3, 0x34, 0x5b, 0xee, 0x2b, 0xd1, 0xf6, 0x32, 0x39, 0xb3, 0xd4,
  0x03, 0xc3, 0x04, 0xda, 0x19, 0xb9, 0xce, 0x11, 0xbd, 0xb4, 0xd8, 0x33,
  0x12, 0xcd, 0xd5, 0x58, 0x0c, 0x16, 0x50, 0xe9, 0x1e, 0x23, 0xe9, 0xe3,
  0xbc, 0x39, 0xf4, 0xea, 0xb2, 0xae, 0x2b, 0x37, 0x9f, 0x36, 0x35, 0xc9,
  0xe3, 0xcc, 0x21, 0x5c, 0x16, 0xe2, 0x36, 0xde, 0xb8, 0xfb, 0x11, 0x31,
  0xcb, 0x49, 0xc3, 0xe1, 0x45, 0x1a, 0xed, 0x49, 0x45, 0xca, 0xf5, 0xb2,
  0xb4, 0xf1, 0xa5, 0x3a, 0x37, 0xcf, 0x22, 0x37, 0x0e, 0xfa, 0x58, 0xca,
  0xcc, 0xac, 0xfc, 0xd4, 0x62, 0x4c, 0xfc, 0x0e, 0xda, 0x1c, 0x50, 0x4a,
  0x18, 0xfc, 0x27, 0x32, 0x0c, 0xde, 0x47, 0x4c, 0x0e, 0x2c, 0x38, 0xba,
  0xeb, 0xa1, 0xfd, 0xdd, 0x25, 0x17, 0x42, 0x21, 0xb9, 0xe7, 0xba, 0xcd,
  0xd0, 0x42, 0xb8, 0xb6, 0xef, 0x2f, 0xe2, 0xd8, 0x18, 0xde, 0x0b, 0xfb,
  0x43, 0x11, 0xc7, 0xd7, 0xfe, 0x26, 0x3d, 0x56, 0xf6, 0x32, 0x3b, 0x3a,
  0xc9, 0x06, 0xde, 0xfd, 0x28, 0x2a, 0xf2, 0x0f, 0x4c, 0xd6, 0x18, 0x21,
  0xef, 0xb9, 0xcf, 0xb8, 0x51, 0x33, 0x4a, 0x52, 0x27, 0x06, 0x3d, 0xef,
  0x34, 0x48, 0xad, 0xb4, 0x10, 0xbd, 0x05, 0xd5, 0xe4, 0x14, 0xd5, 0x2b,
  0xf1, 0x14, 0x42, 0x4a, 0xa9, 0x29, 0xf0, 0xf3, 0x93, 0xfd, 0xda, 0xc1,
  0x99, 0x9a, 0x3f, 0x17, 0x9a, 0xb0, 0xe5, 0x19, 0x10, 0x16, 0xee, 0x4b,
  0x34, 0xe5, 0xf8, 0xd8, 0xd5, 0x26, 0xe1, 0x3f, 0x02, 0x1b, 0xce, 0xaf,
  0x09, 0xab, 0x2e, 0xe5, 0x45, 0x1b, 0x10, 0xdb, 0x21, 0x69, 0xf3, 0xd9,
  0x92, 0xa9, 0x4e, 0xd2, 0x24, 0xc8, 0x5a, 0xe5, 0xda, 0xd6, 0xe8, 0xdd,
  0x39, 0xf5, 0x18, 0x6a, 0x38, 0x51, 0x1f, 0x56, 0x25, 0xe5, 0xf8, 0xf2,
  0xf6, 0x01, 0x3f, 0xcf, 0xa2, 0xa3, 0x02, 0x13, 0x21, 0x2d, 0xb4, 0x21,
  0x2a, 0xd0, 0xf2, 0x12, 0x12, 0xfa, 0xa3, 0x22, 0x09, 0x26, 0x5e, 0x21,
  0x3d, 0x9b, 0x66, 0xbe, 0x4c, 0xef, 0xfb, 0x15, 0xd7, 0xc1, 0x12, 0x09,
  0xd6, 0x53, 0xb4, 0x25, 0xc4, 0xcf, 0xe4, 0x3d, 0x4a, 0xc7, 0xbd, 0x22,
  0x3e, 0xc6, 0x35, 0xed, 0xbf, 0xdb, 0x94, 0x66, 0x41, 0x0b, 0xbe, 0x27,
  0xd9, 0xd2, 0xd1, 0xc5, 0x0d, 0x27, 0x06, 0xb3, 0xfd, 0xaa, 0xe4, 0xcc,
  0xb9, 0xbd, 0xc4, 0xcb, 0x1b, 0xfe, 0x24, 0x4d, 0xea, 0x23, 0xd1, 0x27,
  0xb6, 0x38, 0x43, 0x42, 0x0c, 0xa1, 0x1e, 0xd2, 0x00, 0x1a, 0x2e, 0xc9,
  0x28, 0xfe, 0x37, 0x57, 0x0a, 0x12, 0x01, 0x03, 0x27, 0xcc, 0x51, 0x3a,
  0x14, 0x0c, 0xc1, 0xd9, 0xe3, 0xd8, 0x39, 0xdb, 0xbe, 0x38, 0xeb, 0x29,
  0xb4, 0x14, 0x12, 0xbd, 0xc6, 0xbd, 0x0c, 0x2c, 0x44, 0xed, 0xe5, 0x3b,
  0x41, 0x5b, 0xcf, 0xb1, 0x08, 0x37, 0xc5, 0xb8, 0x0c, 0xbd, 0xfa, 0x53,
  0xaf, 0x55, 0x58, 0x2c, 0x06, 0x30, 0x30, 0xd7, 0xd3, 0xfc, 0xe0, 0x15,
  0x34, 0x32, 0x52, 0x0e, 0xbe, 0xd6, 0x0e, 0xa6, 0xb2, 0xb6, 0xfe, 0x33,
  0xed, 0xdf, 0x15, 0xbc, 0x31, 0xf6, 0xa5, 0x09, 0x5c, 0x54, 0xdc, 0x4d,
  0xbc, 0xf2, 0x54, 0xd8, 0x48, 0x37, 0x24, 0xc9, 0x3a, 0xe4, 0x57, 0xec,
  0xb1, 0xeb, 0xfe, 0xac, 0xcc, 0x07, 0xca, 0x10, 0xc9, 0xbc, 0xc3, 0x2f,
  0x05, 0x0b, 0xd0, 0x28, 0x08, 0xbb, 0x9a, 0x31, 0xb3, 0xc3, 0xfa, 0xbe,
  0xe8, 0xe1, 0x2d, 0xb5, 0x3b, 0x2f, 0xd5, 0xd7, 0x07, 0xd6, 0x31, 0x21,
  0xf5, 0x2c, 0x47, 0xd0, 0x13, 0xd5, 0x16, 0x2e, 0x4a, 0x40, 0xd0, 0xd9,
  0xc5, 0x0f, 0x23, 0xd2, 0xc3, 0x46, 0x0f, 0x00, 0x58, 0x02, 0x9a, 0x10,
  0x33, 0x3a, 0xa8, 0x23, 0x15, 0xb6, 0x2f, 0xc4, 0x46, 0x1d, 0xf5, 0xea,
  0xe8, 0x16, 0xc5, 0xeb, 0x4c, 0x12, 0x08, 0xf9, 0xaa, 0xca, 0xbd, 0x1f,
  0x18, 0xf1, 0xa9, 0xaf, 0xec, 0x23, 0xd5, 0x3c, 0xec, 0x15, 0x17, 0x00,
  0x1d, 0xa2, 0x09, 0x3c, 0xaf, 0xdf, 0x0f, 0x1c, 0x16, 0xc6, 0x10, 0xe1,
  0x3e, 0x22, 0xd3, 0x4d, 0xfc, 0x30, 0x3a, 0xb2, 0xd2, 0xbd, 0x60, 0xa4,
  0xd6, 0xce, 0xfc, 0x9a, 0x55, 0xf1, 0xa5, 0x06, 0xf8, 0x43, 0x29, 0xe9,
  0x52, 0xed, 0xab, 0x9f, 0x17, 0x5f, 0x61, 0x18, 0x25, 0xb9, 0x16, 0xbf,
  0xaa, 0x4a, 0xef, 0x2f, 0x47, 0x4d, 0x31, 0xf0, 0xc5, 0xd0, 0xb3, 0x04,
  0xcf, 0x0c, 0x5e, 0xf9, 0xf3, 0xd5, 0xd0, 0xba, 0xd9, 0x09, 0x09, 0x21,
  0x5f, 0x66, 0x1c, 0xa6, 0xe3, 0x14, 0x4a, 0x0d, 0x5b, 0x10, 0x0c, 0xb2,
  0xba, 0x16, 0x30, 0x30, 0xac, 0x26, 0xbe, 0x26, 0x41, 0xc8, 0x2c, 0xb9,
  0xf5, 0x21, 0xe4, 0xbb, 0xae, 0x3c, 0x1f, 0xb1, 0xaa, 0xc3, 0xf8, 0x17,
  0xcf, 0x21, 0x0c, 0xda, 0xcf, 0xeb, 0xba, 0xab, 0xb1, 0x3d, 0x59, 0x00,
  0xda, 0xa2, 0x0e, 0x00, 0x04, 0xeb, 0x0d, 0x4a, 0xcb, 0xfc, 0x16, 0xdc,
  0x39, 0xd5, 0x30, 0x07, 0xde, 0x45, 0x53, 0xb9, 0xcf, 0xbf, 0x2f, 0x10,
  0x3a, 0xf7, 0x18, 0xea, 0xe6, 0xaa, 0x18, 0x3c, 0xb9, 0xf6, 0x50, 0xf7,
  0x9b, 0xe3, 0xc1, 0xd5, 0x3d, 0x51, 0xb5, 0xe1, 0xc5, 0xbf, 0x14, 0x29,
  0x09, 0xfe, 0x17, 0xa9, 0xaf, 0x05, 0x18, 0xea, 0x12, 0xb1, 0x33, 0xe8,
  0xa3, 0x16, 0xea, 0x56, 0xbd, 0x07, 0x05, 0xd9, 0xec, 0x1a, 0x01, 0xfd,
  0x2a, 0xf0, 0xdc, 0x13, 0xd0, 0x3c, 0x59, 0x09, 0xf8, 0xd4, 0x06, 0xb6,
  0xd9, 0x2b, 0xdc, 0xb4, 0xc8, 0xb8, 0xe2, 0x25, 0xe5, 0xe9, 0x28, 0x4b,
  0x03, 0x30, 0xb4, 0xb6, 0x48, 0xb6, 0xdb, 0x12, 0xc2, 0xb4, 0x22, 0x59,
  0x5c, 0x4d, 0xfc, 0xd6, 0x4b, 0x2b, 0xf1, 0xf1, 0xd4, 0xbd, 0xd1, 0xf9,
  0x4c, 0xea, 0xd4, 0xf1, 0x31, 0xbd, 0x01, 0x32, 0x1e, 0xfc, 0x1a, 0xf1,
  0xcb, 0x20, 0x00, 0x4b, 0xed, 0xb8, 0x16, 0xf1, 0x05, 0x0a, 0xbd, 0xb8,
  0x32, 0x19, 0xb9, 0x46, 0xb9, 0xec, 0x3e, 0x0b, 0xb4, 0x05, 0xfd, 0xe6,
  0xcd, 0x5c, 0x2e, 0x13, 0xd1, 0x1f, 0x0a, 0xc4, 0xba, 0xb1, 0xf8, 0xb1,
  0x18, 0x04, 0xb1, 0xcb, 0x28, 0xe7, 0xdb, 0x49, 0x2a, 0xc2, 0xdd, 0x28,
  0xf6, 0x14, 0xb7, 0xc8, 0xd7, 0xdb, 0xea, 0x44, 0xc8, 0x14, 0xcb, 0x2e,
  0xd2, 0x34, 0x59, 0x4a, 0x08, 0xfa, 0x46, 0x50, 0xcb, 0xaa, 0xd1, 0xec,
  0x4d, 0x4e, 0xc0, 0x07, 0xa8, 0xe2, 0x51, 0x03, 0x20, 0x2b, 0xfe, 0xf5,
  0xb4, 0xf4, 0xdb, 0x02, 0x00, 0xb7, 0x35, 0x50, 0xe0, 0x0b, 0xea, 0x12,
  0x25, 0x2c, 0xac, 0x0e, 0x2a, 0x0e, 0x2d, 0x1d, 0x39, 0x22, 0xc7, 0x25,
  0x24, 0x4d, 0x49, 0x1b, 0x03, 0x01, 0xf1, 0xe3, 0xe1, 0xf9, 0xd6, 0x1b,
  0x28, 0x23, 0xe0, 0x3e, 0xb8, 0x4f, 0x1e, 0x45, 0x17, 0xb6, 0x0e, 0x1f,
  0xd3, 0x34, 0xbd, 0xd3, 0xf8, 0xbe, 0xef, 0xd1, 0xb4, 0x30, 0x2c, 0x56,
  0xcf, 0xc6, 0x29, 0xeb, 0x4a, 0xda, 0xcd, 0xba, 0xf3, 0xe8, 0x53, 0x0c,
  0x2a, 0x22, 0xd1, 0xa4, 0xb3, 0x39, 0xd6, 0x43, 0x1d, 0x13, 0x28, 0xb5,
  0x2b, 0x45, 0xa7, 0x03, 0x53, 0xbe, 0x50, 0xb4, 0x62, 0xfc, 0x39, 0xbe,
  0xcc, 0x38, 0xb8, 0x0e, 0x51, 0x3b, 0xa1, 0xb7, 0x34, 0x2f, 0xb1, 0x50,
  0x34, 0xe7, 0x09, 0xb6, 0xa5, 0xce, 0x0a, 0x4f, 0x28, 0xe4, 0xa9, 0xdd,
  0x4a, 0xb5, 0xb7, 0x3d, 0x46, 0x1b, 0x37, 0xb7, 0x60, 0x25, 0x1a, 0x1f,
  0x16, 0xe6, 0x55, 0xfc, 0x52, 0xf9, 0xfa, 0xe9, 0x28, 0xe3, 0xe9, 0xaf,
  0x5b, 0xa8, 0xe3, 0xfa, 0xec, 0xea, 0xbf, 0x53, 0x5c, 0x25, 0x27, 0x17,
  0xbe, 0xb4, 0xe9, 0xbe, 0x04, 0x23, 0xfd, 0x03, 0xb3, 0xb9, 0x41, 0xc0,
  0x2a, 0xc6, 0xe8, 0xdf, 0xb8, 0x4a, 0x4a, 0x05, 0xa9, 0xce, 0xf0, 0x1d,
  0xb2, 0x1a, 0xa8, 0xff, 0x5a, 0x00, 0x25, 0xcc, 0xb0, 0x13, 0xc3, 0xde,
  0x1f, 0xd4, 0x09, 0xe4, 0xf5, 0xd3, 0xcf, 0x0b, 0x55, 0x04, 0x26, 0xf0,
  0x36, 0xca, 0x39, 0xc3, 0x5f, 0xc7, 0x3a, 0x3f, 0x4c, 0x57, 0x1c, 0xde,
  0xdd, 0x18, 0x17, 0xf2, 0x3d, 0x30, 0xfc, 0x06, 0xd2, 0x03, 0x19, 0x43,
  0x38, 0x1d, 0xb7, 0xd5, 0xc7, 0xe2, 0x32, 0xd1, 0x35, 0x54, 0x46, 0xf4,
  0xf7, 0x00, 0x46, 0xdc, 0xe0, 0x01, 0x03, 0xbc, 0x16, 0x28, 0x24, 0xc1,
  0x0f, 0xd6, 0xbf, 0xbd, 0x4a, 0xbc, 0x10, 0xfc, 0x27, 0x1d, 0xda, 0x0f,
  0x05, 0xd3, 0xbe, 0x25, 0x2a, 0xb6, 0xbf, 0xfc, 0xe0, 0x27, 0xe4, 0xe2,
  0xc8, 0x44, 0x4c, 0x41, 0xe9, 0x52, 0xe0, 0xbb, 0xdc, 0xda, 0xc1, 0x07,
  0x0c, 0x28, 0x5d, 0x0e, 0x48, 0x0c, 0xa6, 0xc0, 0xc2, 0x14, 0x2b, 0xd4,
  0xd2, 0xe5, 0x30, 0x25, 0xab, 0x31, 0xd7, 0xf5, 0xac, 0xa9, 0xbd, 0xd9,
  0xe6, 0x23, 0xb1, 0xe4, 0xdb, 0xf8, 0xbd, 0x58, 0xd9, 0xd0, 0xe4, 0xcf,
  0x0b, 0x07, 0x54, 0x13, 0xf4, 0x25, 0xf1, 0xe2, 0xea, 0xcc, 0xb5, 0xed,
  0xbe, 0xb2, 0x2c, 0x26, 0x4f, 0xff, 0xdd, 0xd2, 0xed, 0x17, 0xf5, 0xc8,
  0x02, 0xb0, 0xf4, 0xc3, 0x2e, 0x29, 0x07, 0x54, 0x22, 0x25, 0xda, 0x1f,
  0xf1, 0x47, 0xd5, 0x4a, 0xf7, 0x33, 0xdc, 0xa9, 0x1c, 0x35, 0x4c, 0x25,
  0xee, 0xe2, 0x29, 0x46, 0xe8, 0xe5, 0x07, 0xcf, 0xb8, 0xdb, 0x40, 0x13,
  0xd6, 0xff, 0xf5, 0xad, 0x1a, 0x4e, 0xc4, 0xbc, 0xdc, 0x56, 0x44, 0x0f,
  0x03, 0x95, 0x32, 0xbe, 0xbe, 0x21, 0xab, 0xba, 0xc9, 0xbf, 0x4d, 0xcd,
  0xc1, 0xab, 0xbf, 0xca, 0x04, 0x34, 0x1e, 0x42, 0x4f, 0xbc, 0xd6, 0xc4,
  0xf2, 0xac, 0x16, 0xe8, 0x0d, 0xb0, 0x46, 0x38, 0x15, 0xe3, 0x15, 0xeb,
  0x4a, 0x08, 0x3e, 0x6b, 0x6e, 0x6b, 0xcf, 0x51, 0xfb, 0xc4, 0x50, 0xe4,
  0x07, 0xe9, 0xfc, 0x3c, 0xf4, 0xb3, 0xeb, 0x68, 0x1e, 0xec, 0x35, 0xd4,
  0xf2, 0x46, 0xbe, 0xda, 0x2a, 0x1e, 0xba, 0xee, 0x19, 0x24, 0xeb, 0x17,
  0x27, 0x1f, 0xf8, 0xdf, 0x2c, 0xce, 0x05, 0x5c, 0x10, 0xa2, 0x22, 0x42,
  0xd1, 0xf3, 0xfd, 0x46, 0x41, 0xed, 0xed, 0x2a, 0x07, 0xd4, 0xaa, 0xe0,
  0x1f, 0xc6, 0xfa, 0x37, 0x0c, 0xea, 0xb7, 0xc8, 0x09, 0x12, 0x0c, 0x15,
  0x5a, 0x52, 0x02, 0x1d, 0xe2, 0xc1, 0xbe, 0x52, 0x35, 0xd8, 0x3d, 0xad,
  0x1e, 0xe6, 0xb8, 0xc2, 0xfe, 0xca, 0x2e, 0x17, 0xe4, 0x00, 0x4a, 0xcf,
  0xf0, 0xb8, 0x11, 0x2d, 0xd2, 0xd3, 0x2f, 0x09, 0x2d, 0xcd, 0x25, 0x18,
  0x19, 0x1b, 0xb9, 0x3a, 0x52, 0xc8, 0x25, 0xeb, 0xd1, 0xb4, 0x0e, 0x2a,
  0x42, 0xb2, 0x36, 0x09, 0xdd, 0xe4, 0x22, 0x1c, 0x00, 0x30, 0x1c, 0xca,
  0xc2, 0xc0, 0x11, 0x35, 0xd8, 0x34, 0xbc, 0xdb, 0x09, 0xe6, 0x30, 0x40,
  0x43, 0x10, 0x43, 0xe3, 0xad, 0xf7, 0xf9, 0xd5, 0x42, 0xe6, 0x03, 0xc9,
  0x4c, 0x14, 0xc2, 0x1b, 0xdc, 0xe1, 0x41, 0xfb, 0x04, 0xf8, 0xc3, 0xc5,
  0x20, 0x28, 0x1e, 0x35, 0xca, 0x30, 0xea, 0xcf, 0x48, 0x52, 0x27, 0x4e,
  0x19, 0x22, 0xae, 0xf0, 0x07, 0x50, 0xe0, 0xf6, 0xdc, 0xfd, 0x50, 0xe9,
  0x3c, 0xce, 0xe6, 0xe2, 0xf9, 0xaf, 0xc0, 0xbc, 0x51, 0xd0, 0xc5, 0x69,
  0xa9, 0x36, 0xd4, 0xb6, 0x1e, 0x05, 0xa6, 0x12, 0xec, 0x0e, 0x49, 0xcf,
  0x42, 0xcd, 0x22, 0x3e, 0x3c, 0x35, 0x3b, 0x40, 0x09, 0xf8, 0xdd, 0xc6,
  0x5a, 0x2a, 0xfb, 0x16, 0x30, 0x4d, 0x35, 0x20, 0xf4, 0xf3, 0x30, 0xc1,
  0xb7, 0x39, 0xc1, 0xcc, 0xf3, 0xd5, 0xe0, 0xac, 0xf8, 0x17, 0xa9, 0xdd,
  0xfa, 0x22, 0xf2, 0x01, 0x27, 0xaf, 0xdd, 0x17, 0xd5, 0xcf, 0xf5, 0x29,
  0xac, 0x02, 0xe8, 0xc6, 0xf9, 0x12, 0x2d, 0x36, 0x23, 0x13, 0x18, 0x3a,
  0x28, 0x52, 0x48, 0x15, 0x39, 0xc8, 0x84, 0xb9, 0x00, 0xe8, 0xf0, 0x0c,
  0x7e, 0x27, 0xe0, 0x23, 0x11, 0x5c, 0x88, 0xb7, 0x4c, 0x6c, 0x39, 0x0c,
  0x79, 0x1a, 0x53, 0xb4, 0xb2, 0x3d, 0x65, 0x35, 0x01, 0x34, 0x9c, 0x96,
  0xfe, 0x2d, 0xaf, 0x41, 0xf1, 0x70, 0xef, 0xfb, 0x95, 0xfd, 0x9e, 0xd5,
  0x94, 0x0b, 0xd2, 0x9f, 0x66, 0xf9, 0x0b, 0xd4, 0xfe, 0x96, 0x9e, 0x48,
  0x2a, 0x31, 0x8c, 0xa5, 0xe2, 0x23, 0x7f, 0xac, 0xcc, 0x16, 0xf1, 0xcc,
  0x45, 0xe4, 0x21, 0xeb, 0xe3, 0x08, 0xd3, 0xd8, 0x23, 0x12, 0xc2, 0xb7,
  0x1a, 0xee, 0x45, 0x5a, 0xf2, 0x2d, 0xfb, 0x2f, 0x97, 0x4c, 0xdc, 0x4b,
  0x68, 0xae, 0xe4, 0x10, 0xc0, 0x08, 0x8f, 0x01, 0x39, 0x43, 0x72, 0xeb,
  0xdb, 0x20, 0xa7, 0x21, 0x41, 0x24, 0xc7, 0xe2, 0xe9, 0x1e, 0x1c, 0xb6,
  0xa9, 0x2c, 0x08, 0x65, 0xf5, 0x67, 0xf3, 0xfc, 0xd9, 0x37, 0xed, 0xb5,
  0xef, 0xe0, 0xf5, 0x25, 0x23, 0x19, 0x36, 0xdc, 0x02, 0x45, 0xff, 0x13,
  0xe4, 0x21, 0xd8, 0x39, 0x57, 0x4e, 0xdf, 0x27, 0x38, 0xc3, 0xeb, 0x0c,
  0xbc, 0x1b, 0xc4, 0x48, 0xeb, 0xf7, 0xa4, 0xfa, 0x54, 0xce, 0xaf, 0xb9,
  0xb4, 0x13, 0xcb, 0x14, 0xbf, 0x2e, 0xe6, 0x33, 0x32, 0xd3, 0xb7, 0xb2,
  0x03, 0x14, 0xd6, 0x23, 0xc8, 0x54, 0x10, 0x5c, 0xba, 0xd7, 0xc6, 0x4e,
  0xc8, 0xd1, 0xdf, 0x3a, 0xfa, 0xe1, 0xae, 0xe9, 0x23, 0x13, 0x9a, 0x06,
  0xff, 0xc9, 0x1f, 0x04, 0xd1, 0x4d, 0xc4, 0xbb, 0x1b, 0x0e, 0x18, 0x41,
  0x35, 0xbf, 0x3e, 0xc9, 0xa2, 0x0e, 0x5f, 0x2e, 0x4a, 0x09, 0xde, 0xa4,
  0x01, 0x4c, 0x0c, 0xe6, 0x34, 0xf8, 0x2d, 0xf4, 0x3c, 0xf2, 0xb2, 0xf6,
  0xbb, 0xa8, 0xbb, 0xab, 0xff, 0x5f, 0x0a, 0xda, 0xb0, 0x16, 0xbb, 0x06,
  0x60, 0x17, 0xde, 0xb3, 0x25, 0x63, 0x51, 0xf9, 0xc5, 0xe3, 0xd8, 0x2b,
  0xd1, 0xea, 0xcf, 0x1b, 0x45, 0xed, 0xf0, 0x04, 0x17, 0x2f, 0x9e, 0x42,
  0x2f, 0x31, 0xf4, 0x06, 0x21, 0xc5, 0xc2, 0xee, 0xa3, 0x3c, 0x25, 0x1e,
  0x35, 0xd2, 0x22, 0x43, 0xe4, 0xfc, 0xaa, 0x4a, 0x3a, 0x0e, 0xfa, 0x1f,
  0x44, 0x36, 0xaf, 0x21, 0x40, 0xdb, 0x11, 0xd2, 0x0a, 0x14, 0xbc, 0xe6,
  0xd8, 0xd1, 0x34, 0x2e, 0x63, 0xf7, 0x30, 0x1f, 0x61, 0xf7, 0x51, 0x04,
  0x1b, 0xfb, 0xda, 0xe7, 0x10, 0x61, 0xf9, 0x26, 0x69, 0x0f, 0xb6, 0x61,
  0xd5, 0xf9, 0x02, 0x28, 0x20, 0x1d, 0xec, 0xf4, 0x33, 0x03, 0x58, 0xec,
  0x1a, 0x60, 0x2b, 0x34, 0x01, 0xd2, 0xaa, 0x29, 0xab, 0x49, 0x8b, 0x0b,
  0xe8, 0x1b, 0x0c, 0xe8, 0xa3, 0xc0, 0xa1, 0xc7, 0x07, 0xda, 0xa3, 0x91,
  0x19, 0x45, 0x0a, 0xad, 0xdb, 0xcf, 0xf9, 0x09, 0x5b, 0x5e, 0x03, 0xfc,
  0x42, 0x1e, 0x2d, 0x8e, 0xa7, 0x2b, 0x3b, 0x47, 0x2a, 0xa5, 0x1e, 0x0a,
  0xbf, 0x42, 0x30, 0x1e, 0xb4, 0xc5, 0x5c, 0x4f, 0xad, 0x41, 0xa3, 0xab,
  0x0e, 0x3a, 0xb7, 0xd6, 0x59, 0xa3, 0xa7, 0xd4, 0x03, 0x35, 0xd3, 0x20,
  0xce, 0xe6, 0x10, 0xcb, 0x48, 0xab, 0xb7, 0xe3, 0x26, 0x43, 0x1c, 0x52,
  0xce, 0x08, 0x0c, 0xd9, 0xda, 0xbb, 0x18, 0xc7, 0xf5, 0x57, 0xc5, 0xad,
  0xa4, 0xea, 0xe9, 0x4b, 0x44, 0xff, 0x2a, 0xc5, 0xc7, 0x24, 0xfc, 0xed,
  0xe6, 0x0a, 0x55, 0xe9, 0x98, 0xce, 0xc7, 0x8c, 0xee, 0xfb, 0x50, 0x18,
  0xe6, 0x8a, 0x9f, 0xcf, 0x12, 0xee, 0xc8, 0xda, 0x75, 0x24, 0xf5, 0x35,
  0x0e, 0xd6, 0x14, 0x40, 0xb7, 0xad, 0x15, 0x8e, 0x09, 0xa7, 0xc0, 0x54,
  0x6f, 0x3e, 0xd1, 0x67, 0x69, 0xfc, 0x65, 0x50, 0xb7, 0xe2, 0x64, 0x24,
  0x52, 0x24, 0xe9, 0xcb, 0xfb, 0x2e, 0x7e, 0xd9, 0x97, 0xcd, 0x2d, 0xff,
  0x3e, 0x48, 0xe7, 0xc0, 0xd4, 0x2d, 0x16, 0xcf, 0x56, 0x1f, 0xf3, 0x3b,
  0x56, 0xf4, 0xc4, 0x41, 0x08, 0x4e, 0x12, 0x0d, 0x36, 0xcc, 0x00, 0x01,
  0xee, 0x2d, 0xc5, 0xe7, 0x50, 0x19, 0xbd, 0xf3, 0x15, 0x0b, 0x01, 0x05,
  0x29, 0x29, 0x4e, 0xf0, 0xe5, 0xcf, 0x47, 0x38, 0xbe, 0x11, 0x0f, 0xf3,
  0xe9, 0x63, 0x18, 0x15, 0xc0, 0x2e, 0xc9, 0xe0, 0xd8, 0xdb, 0x25, 0xcb,
  0xf9, 0x2e, 0x5f, 0xc1, 0x5a, 0x34, 0xc1, 0x03, 0x10, 0x45, 0xd5, 0x0a,
  0xf0, 0xa6, 0x4d, 0x49, 0x1f, 0x4f, 0x07, 0xed, 0xfb, 0x6e, 0x4a, 0x6f,
  0x42, 0xb0, 0x51, 0x15, 0xb5, 0x6b, 0x40, 0x29, 0x35, 0xdb, 0x05, 0xb7,
  0x1b, 0x5a, 0xd2, 0xce, 0x12, 0x4e, 0xdb, 0xe5, 0xac, 0x9e, 0xdb, 0x1b,
  0xc1, 0xeb, 0xbb, 0xda, 0x62, 0x17, 0xcf, 0x04, 0xa4, 0xd2, 0xf1, 0x6b,
  0x17, 0x47, 0xa0, 0xe4, 0x6a, 0xce, 0xd5, 0xeb, 0xd8, 0xac, 0xe1, 0xc0,
  0xe1, 0xca, 0x23, 0x12, 0xc6, 0xfb, 0xc3, 0xc8, 0xee, 0xfd, 0x2b, 0x0b,
  0x47, 0xf9, 0x32, 0x19, 0xdd, 0x09, 0xdd, 0x0f, 0xf5, 0xf8, 0xfc, 0xf3,
  0x3d, 0xfd, 0xbf, 0xe0, 0x0e, 0x3c, 0xcf, 0x48, 0xd0, 0x15, 0x4b, 0x06,
  0x2e, 0x27, 0xff, 0xbf, 0xb3, 0xf4, 0x45, 0x0e, 0x13, 0x04, 0x34, 0xf7,
  0xee, 0x26, 0xb7, 0x48, 0x1c, 0x3b, 0xc2, 0x40, 0xda, 0xef, 0x1a, 0x2f,
  0xeb, 0x64, 0x02, 0x0c, 0xf7, 0xee, 0x1c, 0x01, 0x3f, 0x5b, 0xb1, 0xa0,
  0xf9, 0xa0, 0xe9, 0x65, 0x16, 0xa8, 0xbb, 0x9e, 0x2e, 0x67, 0xfd, 0x51,
  0xdc, 0xa3, 0xb7, 0xb3, 0x1f, 0xec, 0x62, 0x2e, 0xb1, 0x14, 0x43, 0xa1,
  0x02, 0x17, 0xc9, 0x43, 0x14, 0x5e, 0x43, 0x3d, 0x59, 0x36, 0x35, 0x45,
  0xc1, 0xa3, 0xfd, 0x52, 0x34, 0x3d, 0x15, 0xb6, 0xa1, 0x3b, 0x43, 0x58,
  0xd8, 0xe3, 0xb7, 0xcd, 0x0d, 0xc4, 0xd1, 0xb8, 0x5a, 0x4c, 0xc7, 0x22,
  0x04, 0x3f, 0xc8, 0x68, 0xed, 0x64, 0x9c, 0xed, 0x2a, 0x4d, 0x3d, 0x40,
  0xcf, 0xf4, 0x05, 0x13, 0xbe, 0xe8, 0x20, 0x64, 0xc1, 0xe4, 0xb4, 0xad,
  0x30, 0x67, 0x14, 0x09, 0x3f, 0x08, 0x6a, 0x16, 0xf0, 0x9e, 0x2d, 0x9b,
  0x99, 0xfa, 0xca, 0xb0, 0xdf, 0xda, 0xa0, 0xdc, 0xdc, 0xda, 0xb8, 0x2c,
  0x0e, 0xca, 0x27, 0x0c, 0x28, 0xfe, 0x61, 0xaa, 0x9c, 0xc4, 0x04, 0x34,
  0xa1, 0xf4, 0x0c, 0xa5, 0xdf, 0x00, 0x3c, 0xb7, 0xbe, 0xe5, 0xe8, 0xc2,
  0x41, 0xd5, 0xd3, 0xd1, 0x43, 0xc7, 0x3e, 0x13, 0x49, 0x06, 0xe9, 0xdd,
  0xf5, 0xe3, 0x62, 0x04, 0x0c, 0xd6, 0x3d, 0x1f, 0x38, 0xe9, 0xe3, 0x5a,
  0xc7, 0x10, 0xbe, 0x31, 0x38, 0x26, 0x0e, 0xc5, 0xa4, 0xf8, 0x25, 0xcb,
  0x2e, 0x57, 0x31, 0xa0, 0xdb, 0x13, 0x3a, 0x47, 0x26, 0xac, 0xc3, 0xdb,
  0xcb, 0xea, 0xb6, 0x54, 0x06, 0xad, 0x3d, 0x1b, 0xb7, 0x48, 0x1e, 0xc5,
  0xbd, 0xd0, 0x50, 0x62, 0xc5, 0xb6, 0xfc, 0x0f, 0xf4, 0x25, 0xb0, 0x38,
  0xdd, 0x23, 0xec, 0xfe, 0x3f, 0xbc, 0xd4, 0x1d, 0xe9, 0xa9, 0xd0, 0xce,
  0x35, 0xf5, 0x17, 0x1c, 0xe5, 0x36, 0x10, 0x0e, 0xf8, 0x34, 0xf2, 0x10,
  0x1a, 0x05, 0x03, 0xdd, 0xf0, 0x3e, 0x1f, 0x2a, 0xc3, 0xca, 0x24, 0xc5,
  0x19, 0xbf, 0xa1, 0xc5, 0x6d, 0xb0, 0xf3, 0xdb, 0x4c, 0x03, 0xc0, 0x54,
  0x3c, 0xf0, 0xf0, 0xcb, 0x42, 0xd6, 0x20, 0x18, 0x6f, 0xcf, 0x70, 0x6b,
  0x24, 0xb9, 0xf5, 0x0f, 0xc1, 0x25, 0x1f, 0xc1, 0x5c, 0xec, 0xa2, 0x3d,
  0xb8, 0x71, 0xf0, 0x42, 0xc3, 0x25, 0x5c, 0x13, 0x33, 0x8c, 0x28, 0x2b,
  0x9d, 0xa8, 0xe3, 0xd9, 0x73, 0xde, 0xae, 0x4c, 0xa7, 0xe3, 0x07, 0x1f,
  0x05, 0x62, 0xa2, 0xef, 0xd5, 0x3f, 0x75, 0x12, 0x68, 0xbf, 0xc0, 0xbd,
  0x58, 0x3d, 0x0d, 0x39, 0x69, 0x17, 0xd5, 0x3a, 0x60, 0x16, 0x19, 0xca,
  0xed, 0xc2, 0xd9, 0xfa, 0x24, 0x9e, 0x3c, 0x5c, 0x1a, 0xef, 0xff, 0xd8,
  0x13, 0x24, 0xdd, 0x45, 0xa7, 0x4a, 0xff, 0x60, 0xd6, 0xd6, 0x46, 0xf8,
  0xa7, 0xe3, 0xcc, 0xbc, 0x27, 0x19, 0x19, 0xfe, 0x0b, 0xe3, 0x26, 0x37,
  0xd5, 0xf3, 0xb6, 0x16, 0x6b, 0xfa, 0x26, 0xde, 0xfa, 0xfa, 0x2e, 0xec,
  0xb5, 0xf9, 0xe9, 0x0a, 0x12, 0xc8, 0x19, 0xee, 0xd6, 0x3e, 0x4c, 0x22,
  0xd7, 0x36, 0x1f, 0xe6, 0xa0, 0x26, 0x1a, 0xda, 0x2c, 0xf4, 0xba, 0xd1,
  0xb4, 0x39, 0x15, 0xad, 0xb6, 0xeb, 0x34, 0x1e, 0xa7, 0xfd, 0x3f, 0xa5,
  0xc9, 0xa7, 0x41, 0x47, 0x45, 0xad, 0x41, 0xbc, 0xd0, 0xf0, 0xb4, 0xcf,
  0xd4, 0xbb, 0x39, 0xb1, 0x42, 0xef, 0x0d, 0xb8, 0xb6, 0xe1, 0x0f, 0xc9,
  0xde, 0xbf, 0xb6, 0xd5, 0x1f, 0x23, 0xb1, 0xb7, 0xdd, 0xbe, 0xcf, 0x39,
  0x2c, 0xa6, 0xc1, 0x48, 0x26, 0x02, 0x23, 0xdd, 0x05, 0x24, 0x36, 0xd2,
  0x04, 0xfe, 0xbd, 0xae, 0x41, 0x3a, 0x17, 0xbb, 0x04, 0xc1, 0x2d, 0xea,
  0xf1, 0xed, 0x13, 0x4a, 0x36, 0x41, 0x40, 0xfb, 0x32, 0x2c, 0x26, 0x2f,
  0xe6, 0xa0, 0x3e, 0xdc, 0x16, 0x1a, 0xf6, 0x11, 0x18, 0xc6, 0x0e, 0xe3,
  0xe2, 0x0b, 0xc4, 0x46, 0xff, 0xec, 0xd6, 0xa1, 0xca, 0xcd, 0xb3, 0xfe,
  0xbd, 0xc9, 0xba, 0x07, 0x17, 0x44, 0xf5, 0xe8, 0x14, 0xe0, 0xb5, 0x06,
  0xf0, 0xbe, 0xcb, 0xd3, 0xbe, 0x02, 0xf3, 0x26, 0x2a, 0x32, 0x2b, 0xf5,
  0x26, 0x39, 0xf2, 0xe5, 0xed, 0x21, 0xdb, 0x5b, 0x13, 0x41, 0xf3, 0xd1,
  0xde, 0x14, 0xf8, 0x22, 0x19, 0xa1, 0x26, 0xfa, 0x57, 0xea, 0x28, 0xea,
  0xe9, 0xf7, 0x4a, 0x20, 0x12, 0x3a, 0xcc, 0xae, 0x57, 0xdb, 0xe1, 0xc3,
  0x37, 0x4b, 0x4d, 0x0e, 0xcf, 0x32, 0xcc, 0xe7, 0xe4, 0xc8, 0x2c, 0x16,
  0xd4, 0xf9, 0x48, 0xe7, 0xe3, 0xf9, 0xf2, 0xf9, 0x3b, 0x5b, 0xb8, 0xc8,
  0xbf, 0xe5, 0xa8, 0x30, 0x11, 0xfd, 0x18, 0x33, 0x22, 0xa3, 0xec, 0xb3,
  0x1b, 0x0e, 0x53, 0x4a, 0x50, 0xc7, 0xc9, 0x46, 0x55, 0xc1, 0x45, 0x2b,
  0x13, 0xde, 0x20, 0x47, 0x37, 0x2a, 0x1f, 0x24, 0x29, 0x3d, 0x21, 0xdc,
  0x08, 0xcd, 0x22, 0xdd, 0xcd, 0xad, 0x03, 0xaf, 0x20, 0x1f, 0x9b, 0x44,
  0x2a, 0xfb, 0xf1, 0x1f, 0x07, 0x50, 0xbf, 0x3a, 0x42, 0xce, 0x50, 0x50,
  0x21, 0xa1, 0x62, 0x3c, 0xcc, 0x08, 0x0f, 0xe5, 0x12, 0x3c, 0x03, 0xe0,
  0xfe, 0xf3, 0xee, 0x45, 0xb9, 0x54, 0x54, 0x9a, 0xb2, 0x46, 0x3a, 0x2a,
  0x0f, 0xec, 0xda, 0xb0, 0x03, 0x13, 0x3c, 0x4b, 0xb9, 0xb7, 0x2e, 0x1c,
  0x19, 0x37, 0xcb, 0x1c, 0x2a, 0x28, 0x5b, 0x11, 0xc5, 0x69, 0xf6, 0x67,
  0xf3, 0xa0, 0x48, 0xc2, 0xd2, 0xc6, 0xc0, 0x0f, 0xfb, 0xcd, 0x3f, 0x29,
  0xd5, 0x9f, 0xc1, 0xdf, 0xcb, 0xdf, 0xf8, 0x15, 0xe7, 0xab, 0xd9, 0x01,
  0x28, 0xe2, 0xf2, 0xe6, 0x10, 0xd7, 0x6e, 0xf4, 0x4e, 0xf2, 0x32, 0x00,
  0x5e, 0x21, 0x1e, 0xf6, 0x5c, 0x35, 0x51, 0x36, 0x10, 0xe6, 0x15, 0xba,
  0xec, 0x48, 0xca, 0x30, 0xe7, 0xf5, 0x37, 0xd5, 0x3e, 0xd4, 0xab, 0xce,
  0xa1, 0x22, 0xe4, 0x61, 0x15, 0xac, 0x1f, 0x05, 0xfa, 0x39, 0xbf, 0xa8,
  0xf8, 0x24, 0xe0, 0x28, 0x13, 0xa8, 0xdc, 0xdb, 0xce, 0xc8, 0xf9, 0xc4,
  0x0b, 0xa5, 0xf9, 0xaa, 0xf6, 0x42, 0x17, 0x4f, 0x00, 0xdf, 0x0f, 0xbd,
  0xe5, 0x99, 0xaa, 0x5f, 0xd0, 0xfe, 0x17, 0x25, 0xdb, 0x22, 0xcf, 0x62,
  0xde, 0xaa, 0x56, 0xbe, 0x3e, 0x08, 0x57, 0xb6, 0x1d, 0x01, 0xfb, 0x1d,
  0xfc, 0xe0, 0x08, 0x42, 0xee, 0xf7, 0xeb, 0xd8, 0xa4, 0x22, 0x10, 0x2c,
  0xd9, 0x1e, 0xb3, 0x4d, 0xae, 0xb3, 0xc0, 0x4d, 0x20, 0xf7, 0x9e, 0xb9,
  0xb7, 0x24, 0xa3, 0xf3, 0xf9, 0x37, 0xae, 0x41, 0x46, 0x01, 0x32, 0x0e,
  0xfb, 0x39, 0x5e, 0xde, 0xce, 0xb1, 0xfc, 0x12, 0xfe, 0xc7, 0x0c, 0xb5,
  0x0f, 0x17, 0x49, 0x06, 0x2b, 0xa8, 0x47, 0x39, 0xf3, 0xbb, 0xfd, 0xea,
  0xaf, 0xd2, 0x37, 0xd4, 0xb5, 0xa9, 0x9d, 0x49, 0x9b, 0x31, 0x12, 0x10,
  0xdd, 0xb7, 0xda, 0xe0, 0xaf, 0x44, 0xf4, 0xa0, 0xbb, 0x21, 0x35, 0x44,
  0xac, 0x9e, 0xfd, 0xa1, 0x92, 0x13, 0xa9, 0xdd, 0xd3, 0x99, 0xe6, 0x1a,
  0xce, 0x0e, 0x4c, 0xd1, 0x25, 0x08, 0x36, 0x1d, 0x4c, 0x3a, 0xcc, 0xfb,
  0xdf, 0x6e, 0xe3, 0x3b, 0xee, 0x31, 0x43, 0x2a, 0xb3, 0x32, 0x0f, 0x0a,
  0xc6, 0x1f, 0xe5, 0x35, 0x1f, 0xd0, 0xf1, 0x48, 0xaf, 0x9f, 0x1a, 0x3c,
  0x00, 0x00, 0x00, 0x00, 0xd6, 0xfa, 0xff, 0xff, 0x04, 0x00, 0x00, 0x00,
  0x00, 0x02, 0x00, 0x00, 0xb4, 0x5c, 0x5f, 0x3e, 0xfc, 0x2f, 0x6b, 0x3e,
  0x3a, 0x3e, 0x98, 0x3e, 0x2a, 0xba, 0x99, 0xbd, 0xe0, 0xf4, 0x81, 0x3d,
  0x04, 0x79, 0x60, 0x3e, 0x1e, 0xad, 0xbb, 0xbd, 0x7d, 0x84, 0x28, 0xbe,
  0xe0, 0xca, 0x34, 0xbe, 0x9d, 0x38, 0x41, 0xbe, 0xa0, 0xdd, 0xba, 0xbc,
  0x4e, 0xa8, 0x4a, 0xbe, 0xc0, 0x85, 0xd5, 0x3d, 0xea, 0xe6, 0x03, 0xbe,
  0xd2, 0xa9, 0x90, 0x3e, 0xc0, 0xa9, 0xec, 0xbb, 0x04, 0x14, 0xe4, 0x3d,
  0x96, 0xb9, 0x25, 0x3e, 0x14, 0x59, 0xbf, 0xbd, 0x29, 0xd6, 0x86, 0xbe,
  0x90, 0x6f, 0xa3, 0xbd, 0x32, 0xea, 0x83, 0x3e, 0xa9, 0xa1, 0x74, 0xbe,
  0x08, 0x69, 0x73, 0xbe, 0x48, 0x8c, 0x07, 0xbe, 0x0a, 0xa3, 0x8d, 0xbd,
  0xde, 0x4f, 0x25, 0xbe, 0xc0, 0xb2, 0x2d, 0xbd, 0xbc, 0xec, 0xdf, 0x3d,
  0x00, 0xe5, 0x1a, 0xbe, 0x58, 0xc0, 0x6c, 0xbe, 0x34, 0x2b, 0xb0, 0xbd,
  0x80, 0x73, 0x86, 0x3c, 0x80, 0x80, 0x28, 0xbb, 0x20, 0x00, 0x7f, 0x3e,
  0x24, 0x8a, 0x54, 0x3e, 0xe0, 0xe0, 0x87, 0x3e, 0x00, 0x9e, 0x1e, 0xbc,
  0xea, 0xe8, 0x96, 0xbe, 0x40, 0x17, 0xef, 0x3d, 0x70, 0x70, 0x94, 0x3e,
  0xb6, 0xdb, 0x1a, 0x3e, 0xbc, 0xae, 0x69, 0x3e, 0x0c, 0x0d, 0x93, 0x3d,
  0xe2, 0x27, 0x5f, 0xbe, 0x40, 0x40, 0xd5, 0xbd, 0x77, 0x05, 0x80, 0xbe,
  0x0c, 0xdc, 0xa4, 0x3d, 0xf0, 0xb5, 0x57, 0xbe, 0x36, 0x8d, 0xa6, 0xbd,
  0x40, 0x2b, 0x86, 0xbc, 0x2c, 0x5e, 0x55, 0x3e, 0x58, 0x1b, 0x18, 0xbe,
  0x24, 0x1a, 0x92, 0x3d, 0xe0, 0x7b, 0xe9, 0xbd, 0x5c, 0xa5, 0x8e, 0x3d,
  0xd0, 0x10, 0xd9, 0x3d, 0x5c, 0x58, 0x34, 0x3e, 0x44, 0x09, 0x8d, 0x3e,
  0x00, 0x42, 0x34, 0x3c, 0x04, 0x40, 0x89, 0x3e, 0xd8, 0xd2, 0x4d, 0x3d,
  0x00, 0x7f, 0x81, 0xbc, 0xee, 0x08, 0xd9, 0xbd, 0x00, 0x8f, 0x32, 0xbd,
  0xe4, 0x6c, 0x1e, 0x3e, 0x88, 0x85, 0x3a, 0xbd, 0xb8, 0x7d, 0x6c, 0x3e,
  0x3c, 0x59, 0xc1, 0xbd, 0xcc, 0x95, 0x98, 0x3e, 0xd0, 0x86, 0xb9, 0x3c,
  0xee, 0x30, 0x6a, 0xbe, 0x78, 0xfc, 0x56, 0x3e, 0xc0, 0x06, 0x42, 0xbd,
  0x64, 0x5b, 0x65, 0x3e, 0xf2, 0x7b, 0x12, 0xbe, 0x90, 0x59, 0xdf, 0x3c,
  0xe0, 0x30, 0x8e, 0xbc, 0x6e, 0x99, 0x8a, 0xbe, 0xb4, 0xaa, 0x30, 0x3e,
  0xbe, 0x1f, 0xa5, 0xbd, 0x28, 0x97, 0xd5, 0xbd, 0x20, 0x7e, 0xa0, 0xbd,
  0x88, 0xea, 0x4c, 0xbd, 0x98, 0x38, 0x70, 0xbe, 0x4c, 0x4a, 0x8a, 0xbd,
  0x40, 0x3b, 0xfd, 0xbb, 0x78, 0xe0, 0x9f, 0x3d, 0x15, 0xd7, 0x8a, 0xbe,
  0x7c, 0xb6, 0xb1, 0x3d, 0x76, 0x95, 0x92, 0xbd, 0x80, 0xb9, 0xc4, 0xbb,
  0xba, 0xf9, 0x46, 0x3e, 0x5c, 0x83, 0x91, 0x3e, 0x84, 0xa0, 0x6a, 0x3e,
  0xd2, 0x16, 0x93, 0x3e, 0x1a, 0xe8, 0x0d, 0xbe, 0x64, 0x39, 0x98, 0xbe,
  0x00, 0x7d, 0xde, 0xba, 0x16, 0xdf, 0x96, 0x3e, 0x90, 0x6d, 0xf2, 0xbc,
  0xc8, 0x50, 0xf5, 0xbd, 0x07, 0x8f, 0x98, 0xbe, 0x34, 0x62, 0x8c, 0xbe,
  0x90, 0xe2, 0x29, 0xbe, 0x3a, 0xf3, 0xc1, 0xbd, 0x20, 0xcf, 0x91, 0x3e,
  0xe4, 0x8f, 0x3b, 0xbe, 0xce, 0x61, 0x95, 0x3e, 0x78, 0x82, 0x14, 0xbe,
  0x4f, 0x86, 0x67, 0xbe, 0x02, 0x0a, 0x87, 0xbd, 0x00, 0xb5, 0x62, 0x3d,
  0xb2, 0x56, 0x1c, 0x3e, 0x52, 0xcf, 0x61, 0xbe, 0x17, 0x4a, 0x03, 0xbe,
  0x64, 0x22, 0x5c, 0x3e, 0xa0, 0xed, 0x74, 0x3e, 0x5d, 0xce, 0x84, 0xbe,
  0x69, 0x75, 0x4d, 0xbe, 0xda, 0x7b, 0xf3, 0xbd, 0x02, 0xb1, 0x93, 0x3e,
  0x06, 0xce, 0x83, 0xbe, 0x18, 0x91, 0x82, 0x3d, 0x00, 0xef, 0xb6, 0xba,
  0xb8, 0x8e, 0xb1, 0xbd, 0x50, 0x68, 0x89, 0xbe, 0xa0, 0xd9, 0x76, 0x3d,
  0x00, 0x00, 0x00, 0x00, 0xe6, 0xfc, 0xff, 0xff, 0x04, 0x00, 0x00, 0x00,
  0x00, 0x01, 0x00, 0x00, 0x37, 0x16, 0x93, 0x3d, 0x94, 0x6c, 0xe0, 0xbd,
  0x8b, 0xb0, 0x1d, 0xbe, 0x72, 0xfa, 0x06, 0xbe, 0xf0, 0x11, 0x43, 0x3d,
  0x3a, 0x84, 0x16, 0x3d, 0x2b, 0x26, 0x9c, 0xbd, 0xba, 0x94, 0xa2, 0x3d,
  0xe1, 0x21, 0xfb, 0x3d, 0xa7, 0x98, 0x33, 0xbd, 0xd1, 0x98, 0xd0, 0xb9,
  0x06, 0xda, 0x5c, 0x3d, 0xc1, 0x56, 0x9f, 0x3d, 0x80, 0x50, 0x01, 0x3e,
  0x31, 0xa2, 0x41, 0xbd, 0xfa, 0x86, 0x5a, 0xbd, 0x45, 0x13, 0xf8, 0x3d,
  0x86, 0x08, 0xcd, 0x3d, 0xe9, 0x11, 0x95, 0x3d, 0xa6, 0xf9, 0x1c, 0x3d,
  0x26, 0xae, 0xfb, 0x3c, 0x2e, 0xf5, 0x17, 0xbe, 0x16, 0x24, 0x9d, 0x3d,
  0xc1, 0x32, 0x2e, 0xbc, 0x60, 0xe9, 0x31, 0xbd, 0xde, 0x5a, 0xe7, 0x3d,
  0x0c, 0xf7, 0x4c, 0x3d, 0x2f, 0x43, 0x01, 0x3d, 0xe1, 0x3b, 0x8d, 0x3d,
  0x9e, 0x53, 0xa1, 0x39, 0xdf, 0x6b, 0xa8, 0xbd, 0xad, 0x4f, 0xb9, 0xbd,
  0x55, 0x22, 0x13, 0xba, 0x8c, 0xd8, 0x6a, 0x3d, 0x5c, 0x45, 0x0e, 0xbe,
  0xa2, 0xf4, 0x91, 0x3d, 0x47, 0x3d, 0x55, 0xbd, 0x34, 0x4c, 0x77, 0x3d,
  0x05, 0x04, 0xc6, 0x3d, 0xde, 0x96, 0xa8, 0xbd, 0x0f, 0xa8, 0xe2, 0xbc,
  0xc6, 0xf3, 0xdb, 0xbc, 0x74, 0x91, 0x9a, 0xbd, 0x77, 0xb1, 0x54, 0xbd,
  0xd3, 0xc6, 0x85, 0xbd, 0x52, 0x1b, 0xd3, 0xbd, 0x5e, 0xc7, 0x89, 0xbd,
  0xeb, 0xe6, 0x8b, 0xbd, 0x56, 0x01, 0x9d, 0x3d, 0x5b, 0x14, 0x6c, 0x3d,
  0x87, 0xf3, 0x4e, 0xbd, 0x85, 0xde, 0xa9, 0x37, 0xf9, 0x1e, 0x83, 0xbd,
  0x44, 0xd7, 0x76, 0xbd, 0x68, 0xc8, 0x8a, 0xbd, 0x81, 0xa9, 0x00, 0x3d,
  0xed, 0x71, 0xb2, 0x3d, 0x23, 0x8e, 0x31, 0x3d, 0x2d, 0xb8, 0x7c, 0xbd,
  0x8d, 0x6f, 0x4b, 0xbd, 0x86, 0xcf, 0x2f, 0x3d, 0xc5, 0xde, 0x51, 0x3d,
  0x44, 0x11, 0x98, 0x3d, 0x40, 0x81, 0x67, 0xbd, 0x00, 0x00, 0x00, 0x00,
  0xf6, 0xfd, 0xff, 0xff, 0x04, 0x00, 0x00, 0x00, 0x00, 0x01, 0x00, 0x00,
  0x05, 0x65, 0xc6, 0xbc, 0x94, 0xfe, 0x7f, 0x3d, 0x20, 0x6e, 0xb3, 0xbc,
  0x12, 0x78, 0xcf, 0xbc, 0x81, 0x21, 0x4f, 0x3d, 0x4f, 0x93, 0x01, 0x3d,
  0x5e, 0xe8, 0x0b, 0x3d, 0x59, 0xdc, 0xaf, 0x3c, 0x34, 0x13, 0xf1, 0xbc,
  0x2d, 0x22, 0xdf, 0xbc, 0x18, 0x1a, 0xe6, 0xbc, 0x6b, 0xf4, 0xdc, 0x3c,
  0x7f, 0x73, 0x3a, 0x3d, 0x3f, 0xe8, 0x4e, 0xbc, 0x87, 0xe8, 0xd5, 0xbc,
  0x9c, 0x4d, 0x0e, 0xbb, 0xd5, 0xf7, 0x3d, 0xbd, 0xdf, 0x0e, 0x3e, 0xbd,
  0x36, 0xd4, 0xee, 0xbc, 0x87, 0xf0, 0xd5, 0x3c, 0xd8, 0x75, 0xc3, 0xbc,
  0x2e, 0xb1, 0x34, 0x3d, 0x1b, 0x03, 0x3e, 0x3d, 0xa2, 0x04, 0xf0, 0xbc,
  0x50, 0xa7, 0xf4, 0xbc, 0x22, 0x41, 0xc3, 0x3c, 0x85, 0x0a, 0x95, 0xbc,
  0x36, 0xa4, 0x57, 0x3c, 0x5e, 0xf8, 0x01, 0x3d, 0x5c, 0xc3, 0x89, 0x3c,
  0x6e, 0xdf, 0xad, 0x3c, 0xbe, 0x51, 0xdf, 0x3c, 0x05, 0x15, 0x50, 0x3c,
  0xb9, 0x67, 0x31, 0xbd, 0x19, 0x9b, 0x05, 0x3d, 0x7c, 0x68, 0xe0, 0xbc,
  0xbb, 0x97, 0xab, 0x3c, 0xa6, 0x1f, 0x72, 0x3c, 0xcb, 0x11, 0xe5, 0x3d,
  0xae, 0x6b, 0x74, 0x3d, 0x3d, 0x17, 0xcb, 0x3b, 0x1d, 0x08, 0x09, 0x3d,
  0x69, 0xf0, 0x99, 0x3c, 0xa3, 0x69, 0x7d, 0x3d, 0x83, 0xf0, 0x04, 0xbd,
  0x1d, 0x24, 0xa3, 0xbd, 0x3b, 0xca, 0xa1, 0x3c, 0xaa, 0xa6, 0x77, 0x3d,
  0xb6, 0x9e, 0x3e, 0xbb, 0x60, 0xbc, 0x10, 0xbd, 0x7d, 0x27, 0x53, 0x3d,
  0xf1, 0xd4, 0x1b, 0xbd, 0xaf, 0xef, 0x36, 0xbc, 0xa9, 0x20, 0x6d, 0x3d,
  0x98, 0x22, 0x66, 0x3d, 0xb4, 0x11, 0xc2, 0xbc, 0x22, 0xf6, 0xc0, 0x3c,
  0xb9, 0x3a, 0xdc, 0x3c, 0x70, 0x6e, 0x3f, 0xbc, 0x02, 0x7f, 0x5c, 0x3d,
  0x43, 0xdf, 0x46, 0xbd, 0x9e, 0xdb, 0x11, 0xbd, 0xd0, 0xeb, 0x15, 0xbd,
  0x2a, 0x7b, 0x84, 0xbd, 0x00, 0x00, 0x00, 0x00, 0x06, 0xff, 0xff, 0xff,
  0x04, 0x00, 0x00, 0x00, 0x08, 0x00, 0x00, 0x00, 0xbe, 0x2b, 0x25, 0x3d,
  0xac, 0x9b, 0x3f, 0x3d, 0x00, 0x00, 0x00, 0x00, 0x00, 0x00, 0x00, 0x00,
  0x00, 0x00, 0x00, 0x00, 0x26, 0xff, 0xff, 0xff, 0x04, 0x00, 0x00, 0x00,
  0x08, 0x00, 0x00, 0x00, 0x01, 0x3c, 0x29, 0xbe, 0x29, 0x26, 0x1d, 0xbe,
  0x00, 0x00, 0x00, 0x00, 0x34, 0xf6, 0xff, 0xff, 0x00, 0x00, 0x00, 0x00,
  0x00, 0x00, 0x00, 0x00, 0x00, 0x00, 0x00, 0x00, 0x44, 0xf6, 0xff, 0xff,
  0x00, 0x00, 0x00, 0x00, 0x0f, 0x00, 0x00, 0x00, 0x4d, 0x4c, 0x49, 0x52,
  0x20, 0x43, 0x6f, 0x6e, 0x76, 0x65, 0x72, 0x74, 0x65, 0x64, 0x2e, 0x00,
  0x01, 0x00, 0x00, 0x00, 0x14, 0x00, 0x00, 0x00, 0x00, 0x00, 0x0e, 0x00,
  0x18, 0x00, 0x04, 0x00, 0x08, 0x00, 0x0c, 0x00, 0x10, 0x00, 0x14, 0x00,
  0x0e, 0x00, 0x00, 0x00, 0x84, 0x02, 0x00, 0x00, 0x78, 0x02, 0x00, 0x00,
  0x6c, 0x02, 0x00, 0x00, 0x14, 0x00, 0x00, 0x00, 0x04, 0x00, 0x00, 0x00,
  0x04, 0x00, 0x00, 0x00, 0x6d, 0x61, 0x69, 0x6e, 0x00, 0x00, 0x00, 0x00,
  0x0b, 0x00, 0x00, 0x00, 0x20, 0x02, 0x00, 0x00, 0xec, 0x01, 0x00, 0x00,
  0x9c, 0x01, 0x00, 0x00, 0x78, 0x01, 0x00, 0x00, 0x44, 0x01, 0x00, 0x00,
  0x20, 0x01, 0x00, 0x00, 0xec, 0x00, 0x00, 0x00, 0xbc, 0x00, 0x00, 0x00,
  0x78, 0x00, 0x00, 0x00, 0x54, 0x00, 0x00, 0x00, 0x14, 0x00, 0x00, 0x00,
  0x00, 0x00, 0x0e, 0x00, 0x1a, 0x00, 0x08, 0x00, 0x0c, 0x00, 0x10, 0x00,
  0x07, 0x00, 0x14, 0x00, 0x0e, 0x00, 0x00, 0x00, 0x00, 0x00, 0x00, 0x0a,
  0x05, 0x00, 0x00, 0x00, 0x24, 0x00, 0x00, 0x00, 0x18, 0x00, 0x00, 0x00,
  0x0c, 0x00, 0x00, 0x00, 0x00, 0x00, 0x06, 0x00, 0x08, 0x00, 0x04, 0x00,
  0x06, 0x00, 0x00, 0x00, 0x01, 0x00, 0x00, 0x00, 0x01, 0x00, 0x00, 0x00,
  0x14, 0x00, 0x00, 0x00, 0x02, 0x00, 0x00, 0x00, 0x0f, 0x00, 0x00, 0x00,
  0x13, 0x00, 0x00, 0x00, 0x92, 0xfe, 0xff, 0xff, 0x04, 0x00, 0x00, 0x00,
  0x10, 0x00, 0x00, 0x00, 0x04, 0x00, 0x00, 0x00, 0x01, 0x00, 0x00, 0x00,
  0x13, 0x00, 0x00, 0x00, 0x01, 0x00, 0x00, 0x00, 0x12, 0x00, 0x00, 0x00,
  0xce, 0xff, 0xff, 0xff, 0x00, 0x00, 0x00, 0x0b, 0x03, 0x00, 0x00, 0x00,
  0x18, 0x00, 0x00, 0x00, 0x0c, 0x00, 0x00, 0x00, 0x04, 0x00, 0x00, 0x00,
  0x50, 0xf7, 0xff, 0xff, 0x01, 0x00, 0x00, 0x00, 0x12, 0x00, 0x00, 0x00,
  0x02, 0x00, 0x00, 0x00, 0x11, 0x00, 0x00, 0x00, 0x09, 0x00, 0x00, 0x00,
  0x00, 0x00, 0x0e, 0x00, 0x18, 0x00, 0x08, 0x00, 0x0c, 0x00, 0x10, 0x00,
  0x07, 0x00, 0x14, 0x00, 0x0e, 0x00, 0x00, 0x00, 0x00, 0x00, 0x00, 0x21,
  0x02, 0x00, 0x00, 0x00, 0x18, 0x00, 0x00, 0x00, 0x0c, 0x00, 0x00, 0x00,
  0x04, 0x00, 0x00, 0x00, 0x90, 0xf7, 0xff, 0xff, 0x01, 0x00, 0x00, 0x00,
  0x11, 0x00, 0x00, 0x00, 0x01, 0x00, 0x00, 0x00, 0x10, 0x00, 0x00, 0x00,
  0xf2, 0xfe, 0xff, 0xff, 0x00, 0x00, 0x00, 0x08, 0x18, 0x00, 0x00, 0x00,
  0x0c, 0x00, 0x00, 0x00, 0x04, 0x00, 0x00, 0x00, 0xb8, 0xf7, 0xff, 0xff,
  0x01, 0x00, 0x00, 0x00, 0x10, 0x00, 0x00, 0x00, 0x03, 0x00, 0x00, 0x00,
  0x0d, 0x00, 0x00, 0x00, 0x08, 0x00, 0x00, 0x00, 0x01, 0x00, 0x00, 0x00,
  0x4e, 0xff, 0xff, 0xff, 0x01, 0x00, 0x00, 0x00, 0x10, 0x00, 0x00, 0x00,
  0x04, 0x00, 0x00, 0x00, 0x01, 0x00, 0x00, 0x00, 0x0f, 0x00, 0x00, 0x00,
  0x01, 0x00, 0x00, 0x00, 0x0e, 0x00, 0x00, 0x00, 0x42, 0xff, 0xff, 0xff,
  0x00, 0x00, 0x00, 0x08, 0x18, 0x00, 0x00, 0x00, 0x0c, 0x00, 0x00, 0x00,
  0x04, 0x00, 0x00, 0x00, 0x08, 0xf8, 0xff, 0xff, 0x01, 0x00, 0x00, 0x00,
  0x0e, 0x00, 0x00, 0x00, 0x03, 0x00, 0x00, 0x00, 0x0d, 0x00, 0x00, 0x00,
  0x07, 0x00, 0x00, 0x00, 0x02, 0x00, 0x00, 0x00, 0x9e, 0xff, 0xff, 0xff,
  0x01, 0x00, 0x00, 0x00, 0x10, 0x00, 0x00, 0x00, 0x04, 0x00, 0x00, 0x00,
  0x01, 0x00, 0x00, 0x00, 0x0d, 0x00, 0x00, 0x00, 0x01, 0x00, 0x00, 0x00,
  0x0c, 0x00, 0x00, 0x00, 0x92, 0xff, 0xff, 0xff, 0x00, 0x00, 0x00, 0x08,
  0x28, 0x00, 0x00, 0x00, 0x1c, 0x00, 0x00, 0x00, 0x10, 0x00, 0x00, 0x00,
  0x0c, 0x00, 0x08, 0x00, 0x00, 0x00, 0x00, 0x00, 0x00, 0x00, 0x07, 0x00,
  0x0c, 0x00, 0x00, 0x00, 0x00, 0x00, 0x00, 0x01, 0x01, 0x00, 0x00, 0x00,
  0x0c, 0x00, 0x00, 0x00, 0x03, 0x00, 0x00, 0x00, 0x0b, 0x00, 0x00, 0x00,
  0x06, 0x00, 0x00, 0x00, 0x03, 0x00, 0x00, 0x00, 0x00, 0x00, 0x0a, 0x00,
  0x10, 0x00, 0x04, 0x00, 0x08, 0x00, 0x0c, 0x00, 0x0a, 0x00, 0x00, 0x00,
  0x01, 0x00, 0x00, 0x00, 0x10, 0x00, 0x00, 0x00, 0x04, 0x00, 0x00, 0x00,
  0x01, 0x00, 0x00, 0x00, 0x0b, 0x00, 0x00, 0x00, 0x01, 0x00, 0x00, 0x00,
  0x0a, 0x00, 0x00, 0x00, 0x00, 0x00, 0x0e, 0x00, 0x14, 0x00, 0x00, 0x00,
  0x08, 0x00, 0x0c, 0x00, 0x07, 0x00, 0x10, 0x00, 0x0e, 0x00, 0x00, 0x00,
  0x00, 0x00, 0x00, 0x08, 0x18, 0x00, 0x00, 0x00, 0x0c, 0x00, 0x00, 0x00,
  0x04, 0x00, 0x00, 0x00, 0xd4, 0xf8, 0xff, 0xff, 0x01, 0x00, 0x00, 0x00,
  0x0a, 0x00, 0x00, 0x00, 0x03, 0x00, 0x00, 0x00, 0x00, 0x00, 0x00, 0x00,
  0x05, 0x00, 0x00, 0x00, 0x04, 0x00, 0x00, 0x00, 0x01, 0x00, 0x00, 0x00,
  0x14, 0x00, 0x00, 0x00, 0x01, 0x00, 0x00, 0x00, 0x00, 0x00, 0x00, 0x00,
  0x15, 0x00, 0x00, 0x00, 0x74, 0x06, 0x00, 0x00, 0x28, 0x06, 0x00, 0x00,
  0xe0, 0x05, 0x00, 0x00, 0xa8, 0x05, 0x00, 0x00, 0x74, 0x05, 0x00, 0x00,
  0x34, 0x05, 0x00, 0x00, 0xc0, 0x04, 0x00, 0x00, 0x6c, 0x04, 0x00, 0x00,
  0x28, 0x04, 0x00, 0x00, 0xf4, 0x03, 0x00, 0x00, 0x80, 0x03, 0x00, 0x00,
  0x30, 0x03, 0x00, 0x00, 0xc8, 0x02, 0x00, 0x00, 0x78, 0x02, 0x00, 0x00,
  0x10, 0x02, 0x00, 0x00, 0xc0, 0x01, 0x00, 0x00, 0x58, 0x01, 0x00, 0x00,
  0x04, 0x01, 0x00, 0x00, 0xb0, 0x00, 0x00, 0x00, 0x5c, 0x00, 0x00, 0x00,
  0x04, 0x00, 0x00, 0x00, 0xf4, 0xf9, 0xff, 0xff, 0x44, 0x00, 0x00, 0x00,
  0x15, 0x00, 0x00, 0x00, 0x1c, 0x00, 0x00, 0x00, 0x14, 0x00, 0x00, 0x00,
  0x04, 0x00, 0x00, 0x00, 0x02, 0x00, 0x00, 0x00, 0xff, 0xff, 0xff, 0xff,
  0x04, 0x00, 0x00, 0x00, 0x7c, 0xf9, 0xff, 0xff, 0x19, 0x00, 0x00, 0x00,
  0x53, 0x74, 0x61, 0x74, 0x65, 0x66, 0x75, 0x6c, 0x50, 0x61, 0x72, 0x74,
  0x69, 0x74, 0x69, 0x6f, 0x6e, 0x65, 0x64, 0x43, 0x61, 0x6c, 0x6c, 0x3a,
  0x30, 0x00, 0x00, 0x00, 0x02, 0x00, 0x00, 0x00, 0x01, 0x00, 0x00, 0x00,
  0x04, 0x00, 0x00, 0x00, 0x48, 0xfa, 0xff, 0xff, 0x40, 0x00, 0x00, 0x00,
  0x14, 0x00, 0x00, 0x00, 0x1c, 0x00, 0x00, 0x00, 0x14, 0x00, 0x00, 0x00,
  0x04, 0x00, 0x00, 0x00, 0x02, 0x00, 0x00, 0x00, 0xff, 0xff, 0xff, 0xff,
  0x02, 0x00, 0x00, 0x00, 0xd0, 0xf9, 0xff, 0xff, 0x17, 0x00, 0x00, 0x00,
  0x6d, 0x6f, 0x64, 0x65, 0x6c, 0x2f, 0x64, 0x65, 0x6e, 0x73, 0x65, 0x5f,
  0x33, 0x2f, 0x53, 0x6f, 0x66, 0x74, 0x70, 0x6c, 0x75, 0x73, 0x33, 0x00,
  0x02, 0x00, 0x00, 0x00, 0x01, 0x00, 0x00, 0x00, 0x02, 0x00, 0x00, 0x00,
  0x98, 0xfa, 0xff, 0xff, 0x40, 0x00, 0x00, 0x00, 0x13, 0x00, 0x00, 0x00,
  0x1c, 0x00, 0x00, 0x00, 0x14, 0x00, 0x00, 0x00, 0x04, 0x00, 0x00, 0x00,
  0x02, 0x00, 0x00, 0x00, 0xff, 0xff, 0xff, 0xff, 0x02, 0x00, 0x00, 0x00,
  0x20, 0xfa, 0xff, 0xff, 0x17, 0x00, 0x00, 0x00, 0x6d, 0x6f, 0x64, 0x65,
  0x6c, 0x2f, 0x64, 0x65, 0x6e, 0x73, 0x65, 0x5f, 0x33, 0x2f, 0x53, 0x6f,
  0x66, 0x74, 0x70, 0x6c, 0x75, 0x73, 0x32, 0x00, 0x02, 0x00, 0x00, 0x00,
  0x01, 0x00, 0x00, 0x00, 0x02, 0x00, 0x00, 0x00, 0xe8, 0xfa, 0xff, 0xff,
  0x40, 0x00, 0x00, 0x00, 0x12, 0x00, 0x00, 0x00, 0x1c, 0x00, 0x00, 0x00,
  0x14, 0x00, 0x00, 0x00, 0x04, 0x00, 0x00, 0x00, 0x02, 0x00, 0x00, 0x00,
  0xff, 0xff, 0xff, 0xff, 0x02, 0x00, 0x00, 0x00, 0x70, 0xfa, 0xff, 0xff,
  0x17, 0x00, 0x00, 0x00, 0x6d, 0x6f, 0x64, 0x65, 0x6c, 0x2f, 0x64, 0x65,
  0x6e, 0x73, 0x65, 0x5f, 0x33, 0x2f, 0x53, 0x6f, 0x66, 0x74, 0x70, 0x6c,
  0x75, 0x73, 0x31, 0x00, 0x02, 0x00, 0x00, 0x00, 0x01, 0x00, 0x00, 0x00,
  0x02, 0x00, 0x00, 0x00, 0x38, 0xfb, 0xff, 0xff, 0x54, 0x00, 0x00, 0x00,
  0x11, 0x00, 0x00, 0x00, 0x1c, 0x00, 0x00, 0x00, 0x14, 0x00, 0x00, 0x00,
  0x04, 0x00, 0x00, 0x00, 0x02, 0x00, 0x00, 0x00, 0xff, 0xff, 0xff, 0xff,
  0x02, 0x00, 0x00, 0x00, 0xc0, 0xfa, 0xff, 0xff, 0x2a, 0x00, 0x00, 0x00,
  0x6d, 0x6f, 0x64, 0x65, 0x6c, 0x2f, 0x64, 0x65, 0x6e, 0x73, 0x65, 0x5f,
  0x33, 0x2f, 0x4d, 0x61, 0x74, 0x4d, 0x75, 0x6c, 0x3b, 0x6d, 0x6f, 0x64,
  0x65, 0x6c, 0x2f, 0x64, 0x65, 0x6e, 0x73, 0x65, 0x5f, 0x33, 0x2f, 0x42,
  0x69, 0x61, 0x73, 0x41, 0x64, 0x64, 0x00, 0x00, 0x02, 0x00, 0x00, 0x00,
  0x01, 0x00, 0x00, 0x00, 0x02, 0x00, 0x00, 0x00, 0x9c, 0xfb, 0xff, 0xff,
  0x3c, 0x00, 0x00, 0x00, 0x10, 0x00, 0x00, 0x00, 0x1c, 0x00, 0x00, 0x00,
  0x14, 0x00, 0x00, 0x00, 0x04, 0x00, 0x00, 0x00, 0x02, 0x00, 0x00, 0x00,
  0xff, 0xff, 0xff, 0xff, 0x02, 0x00, 0x00, 0x00, 0x24, 0xfb, 0xff, 0xff,
  0x12, 0x00, 0x00, 0x00, 0x6d, 0x6f, 0x64, 0x65, 0x6c, 0x2f, 0x64, 0x65,
  0x6e, 0x73, 0x65, 0x5f, 0x32, 0x2f, 0x54, 0x61, 0x6e, 0x68, 0x00, 0x00,
  0x02, 0x00, 0x00, 0x00, 0x01, 0x00, 0x00, 0x00, 0x02, 0x00, 0x00, 0x00,
  0xe8, 0xfb, 0xff, 0xff, 0x54, 0x00, 0x00, 0x00, 0x0f, 0x00, 0x00, 0x00,
  0x1c, 0x00, 0x00, 0x00, 0x14, 0x00, 0x00, 0x00, 0x04, 0x00, 0x00, 0x00,
  0x02, 0x00, 0x00, 0x00, 0xff, 0xff, 0xff, 0xff, 0x02, 0x00, 0x00, 0x00,
  0x70, 0xfb, 0xff, 0xff, 0x2a, 0x00, 0x00, 0x00, 0x6d, 0x6f, 0x64, 0x65,
  0x6c, 0x2f, 0x64, 0x65, 0x6e, 0x73, 0x65, 0x5f, 0x32, 0x2f, 0x4d, 0x61,
  0x74, 0x4d, 0x75, 0x6c, 0x3b, 0x6d, 0x6f, 0x64, 0x65, 0x6c, 0x2f, 0x64,
  0x65, 0x6e, 0x73, 0x65, 0x5f, 0x32, 0x2f, 0x42, 0x69, 0x61, 0x73, 0x41,
  0x64, 0x64, 0x00, 0x00, 0x02, 0x00, 0x00, 0x00, 0x01, 0x00, 0x00, 0x00,
  0x02, 0x00, 0x00, 0x00, 0x4c, 0xfc, 0xff, 0xff, 0x3c, 0x00, 0x00, 0x00,
  0x0e, 0x00, 0x00, 0x00, 0x1c, 0x00, 0x00, 0x00, 0x14, 0x00, 0x00, 0x00,
  0x04, 0x00, 0x00, 0x00, 0x02, 0x00, 0x00, 0x00, 0xff, 0xff, 0xff, 0xff,
  0x40, 0x00, 0x00, 0x00, 0xd4, 0xfb, 0xff, 0xff, 0x12, 0x00, 0x00, 0x00,
  0x6d, 0x6f, 0x64, 0x65, 0x6c, 0x2f, 0x64, 0x65, 0x6e, 0x73, 0x65, 0x5f,
  0x31, 0x2f, 0x54, 0x61, 0x6e, 0x68, 0x00, 0x00, 0x02, 0x00, 0x00, 0x00,
  0x01, 0x00, 0x00, 0x00, 0x40, 0x00, 0x00, 0x00, 0x98, 0xfc, 0xff, 0xff,
  0x54, 0x00, 0x00, 0x00, 0x0d, 0x00, 0x00, 0x00, 0x1c, 0x00, 0x00, 0x00,
  0x14, 0x00, 0x00, 0x00, 0x04, 0x00, 0x00, 0x00, 0x02, 0x00, 0x00, 0x00,
  0xff, 0xff, 0xff, 0xff, 0x40, 0x00, 0x00, 0x00, 0x20, 0xfc, 0xff, 0xff,
  0x2a, 0x00, 0x00, 0x00, 0x6d, 0x6f, 0x64, 0x65, 0x6c, 0x2f, 0x64, 0x65,
  0x6e, 0x73, 0x65, 0x5f, 0x31, 0x2f, 0x4d, 0x61, 0x74, 0x4d, 0x75, 0x6c,
  0x3b, 0x6d, 0x6f, 0x64, 0x65, 0x6c, 0x2f, 0x64, 0x65, 0x6e, 0x73, 0x65,
  0x5f, 0x31, 0x2f, 0x42, 0x69, 0x61, 0x73, 0x41, 0x64, 0x64, 0x00, 0x00,
  0x02, 0x00, 0x00, 0x00, 0x01, 0x00, 0x00, 0x00, 0x40, 0x00, 0x00, 0x00,
  0xfc, 0xfc, 0xff, 0xff, 0x3c, 0x00, 0x00, 0x00, 0x0c, 0x00, 0x00, 0x00,
  0x1c, 0x00, 0x00, 0x00, 0x14, 0x00, 0x00, 0x00, 0x04, 0x00, 0x00, 0x00,
  0x02, 0x00, 0x00, 0x00, 0xff, 0xff, 0xff, 0xff, 0x40, 0x00, 0x00, 0x00,
  0x84, 0xfc, 0xff, 0xff, 0x10, 0x00, 0x00, 0x00, 0x6d, 0x6f, 0x64, 0x65,
  0x6c, 0x2f, 0x64, 0x65, 0x6e, 0x73, 0x65, 0x2f, 0x54, 0x61, 0x6e, 0x68,
  0x00, 0x00, 0x00, 0x00, 0x02, 0x00, 0x00, 0x00, 0x01, 0x00, 0x00, 0x00,
  0x40, 0x00, 0x00, 0x00, 0x48, 0xfd, 0xff, 0xff, 0x50, 0x00, 0x00, 0x00,
  0x0b, 0x00, 0x00, 0x00, 0x1c, 0x00, 0x00, 0x00, 0x14, 0x00, 0x00, 0x00,
  0x04, 0x00, 0x00, 0x00, 0x02, 0x00, 0x00, 0x00, 0xff, 0xff, 0xff, 0xff,
  0x40, 0x00, 0x00, 0x00, 0xd0, 0xfc, 0xff, 0xff, 0x26, 0x00, 0x00, 0x00,
  0x6d, 0x6f, 0x64, 0x65, 0x6c, 0x2f, 0x64, 0x65, 0x6e, 0x73, 0x65, 0x2f,
  0x4d, 0x61, 0x74, 0x4d, 0x75, 0x6c, 0x3b, 0x6d, 0x6f, 0x64, 0x65, 0x6c,
  0x2f, 0x64, 0x65, 0x6e, 0x73, 0x65, 0x2f, 0x42, 0x69, 0x61, 0x73, 0x41,
  0x64, 0x64, 0x00, 0x00, 0x02, 0x00, 0x00, 0x00, 0x01, 0x00, 0x00, 0x00,
  0x40, 0x00, 0x00, 0x00, 0x00, 0x00, 0x0e, 0x00, 0x10, 0x00, 0x00, 0x00,
  0x00, 0x00, 0x04, 0x00, 0x08, 0x00, 0x0c, 0x00, 0x0e, 0x00, 0x00, 0x00,
  0x0a, 0x00, 0x00, 0x00, 0x0c, 0x00, 0x00, 0x00, 0x04, 0x00, 0x00, 0x00,
  0x2c, 0xfd, 0xff, 0xff, 0x16, 0x00, 0x00, 0x00, 0x6d, 0x6f, 0x64, 0x65,
  0x6c, 0x2f, 0x64, 0x65, 0x6e, 0x73, 0x65, 0x5f, 0x33, 0x2f, 0x53, 0x6f,
  0x66, 0x74, 0x70, 0x6c, 0x75, 0x73, 0x00, 0x00, 0x2a, 0xfe, 0xff, 0xff,
  0x30, 0x00, 0x00, 0x00, 0x09, 0x00, 0x00, 0x00, 0x0c, 0x00, 0x00, 0x00,
  0x04, 0x00, 0x00, 0x00, 0x60, 0xfd, 0xff, 0xff, 0x14, 0x00, 0x00, 0x00,
  0x6d, 0x6f, 0x64, 0x65, 0x6c, 0x2f, 0x64, 0x65, 0x6e, 0x73, 0x65, 0x5f,
  0x33, 0x2f, 0x4d, 0x61, 0x74, 0x4d, 0x75, 0x6c, 0x00, 0x00, 0x00, 0x00,
  0x02, 0x00, 0x00, 0x00, 0x02, 0x00, 0x00, 0x00, 0x40, 0x00, 0x00, 0x00,
  0x6a, 0xfe, 0xff, 0xff, 0x30, 0x00, 0x00, 0x00, 0x08, 0x00, 0x00, 0x00,
  0x0c, 0x00, 0x00, 0x00, 0x04, 0x00, 0x00, 0x00, 0xa0, 0xfd, 0xff, 0xff,
  0x14, 0x00, 0x00, 0x00, 0x6d, 0x6f, 0x64, 0x65, 0x6c, 0x2f, 0x64, 0x65,
  0x6e, 0x73, 0x65, 0x5f, 0x32, 0x2f, 0x4d, 0x61, 0x74, 0x4d, 0x75, 0x6c,
  0x00, 0x00, 0x00, 0x00, 0x02, 0x00, 0x00, 0x00, 0x02, 0x00, 0x00, 0x00,
  0x40, 0x00, 0x00, 0x00, 0x00, 0x00, 0x0e, 0x00, 0x18, 0x00, 0x08, 0x00,
  0x07, 0x00, 0x0c, 0x00, 0x10, 0x00, 0x14, 0x00, 0x0e, 0x00, 0x00, 0x00,
  0x00, 0x00, 0x00, 0x09, 0x5c, 0x00, 0x00, 0x00, 0x07, 0x00, 0x00, 0x00,
  0x38, 0x00, 0x00, 0x00, 0x10, 0x00, 0x00, 0x00, 0x0c, 0x00, 0x0c, 0x00,
  0x00, 0x00, 0x00, 0x00, 0x04, 0x00, 0x08, 0x00, 0x0c, 0x00, 0x00, 0x00,
  0x18, 0x00, 0x00, 0x00, 0x04, 0x00, 0x00, 0x00, 0x01, 0x00, 0x00, 0x00,
  0x00, 0x00, 0x00, 0x00, 0x00, 0x00, 0x00, 0x00, 0x00, 0x00, 0x00, 0x00,
  0x01, 0x00, 0x00, 0x00, 0x54, 0xf8, 0x22, 0x3b, 0x14, 0x00, 0x00, 0x00,
  0x6d, 0x6f, 0x64, 0x65, 0x6c, 0x2f, 0x64, 0x65, 0x6e, 0x73, 0x65, 0x5f,
  0x31, 0x2f, 0x4d, 0x61, 0x74, 0x4d, 0x75, 0x6c, 0x00, 0x00, 0x00, 0x00,
  0x02, 0x00, 0x00, 0x00, 0x40, 0x00, 0x00, 0x00, 0x40, 0x00, 0x00, 0x00,
  0x2a, 0xff, 0xff, 0xff, 0x2c, 0x00, 0x00, 0x00, 0x06, 0x00, 0x00, 0x00,
  0x0c, 0x00, 0x00, 0x00, 0x04, 0x00, 0x00, 0x00, 0x60, 0xfe, 0xff, 0xff,
  0x12, 0x00, 0x00, 0x00, 0x6d, 0x6f, 0x64, 0x65, 0x6c, 0x2f, 0x64, 0x65,
  0x6e, 0x73, 0x65, 0x2f, 0x4d, 0x61, 0x74, 0x4d, 0x75, 0x6c, 0x00, 0x00,
  0x02, 0x00, 0x00, 0x00, 0x40, 0x00, 0x00, 0x00, 0x02, 0x00, 0x00, 0x00,
  0x66, 0xff, 0xff, 0xff, 0x24, 0x00, 0x00, 0x00, 0x05, 0x00, 0x00, 0x00,
  0x0c, 0x00, 0x00, 0x00, 0x04, 0x00, 0x00, 0x00, 0x9c, 0xfe, 0xff, 0xff,
  0x0a, 0x00, 0x00, 0x00, 0x64, 0x65, 0x6e, 0x73, 0x65, 0x2f, 0x62, 0x69,
  0x61, 0x73, 0x00, 0x00, 0x01, 0x00, 0x00, 0x00, 0x40, 0x00, 0x00, 0x00,
  0x96, 0xff, 0xff, 0xff, 0x28, 0x00, 0x00, 0x00, 0x04, 0x00, 0x00, 0x00,
  0x0c, 0x00, 0x00, 0x00, 0x04, 0x00, 0x00, 0x00, 0xcc, 0xfe, 0xff, 0xff,
  0x0c, 0x00, 0x00, 0x00, 0x64, 0x65, 0x6e, 0x73, 0x65, 0x5f, 0x31, 0x2f,
  0x62, 0x69, 0x61, 0x73, 0x00, 0x00, 0x00, 0x00, 0x01, 0x00, 0x00, 0x00,
  0x40, 0x00, 0x00, 0x00, 0xca, 0xff, 0xff, 0xff, 0x28, 0x00, 0x00, 0x00,
  0x03, 0x00, 0x00, 0x00, 0x0c, 0x00, 0x00, 0x00, 0x04, 0x00, 0x00, 0x00,
  0x00, 0xff, 0xff, 0xff, 0x0c, 0x00, 0x00, 0x00, 0x64, 0x65, 0x6e, 0x73,
  0x65, 0x5f, 0x32, 0x2f, 0x62, 0x69, 0x61, 0x73, 0x00, 0x00, 0x00, 0x00,
  0x01, 0x00, 0x00, 0x00, 0x02, 0x00, 0x00, 0x00, 0x00, 0x00, 0x0e, 0x00,
  0x14, 0x00, 0x04, 0x00, 0x00, 0x00, 0x08, 0x00, 0x0c, 0x00, 0x10, 0x00,
  0x0e, 0x00, 0x00, 0x00, 0x28, 0x00, 0x00, 0x00, 0x02, 0x00, 0x00, 0x00,
  0x0c, 0x00, 0x00, 0x00, 0x04, 0x00, 0x00, 0x00, 0x44, 0xff, 0xff, 0xff,
  0x0c, 0x00, 0x00, 0x00, 0x64, 0x65, 0x6e, 0x73, 0x65, 0x5f, 0x33, 0x2f,
  0x62, 0x69, 0x61, 0x73, 0x00, 0x00, 0x00, 0x00, 0x01, 0x00, 0x00, 0x00,
  0x02, 0x00, 0x00, 0x00, 0x14, 0x00, 0x18, 0x00, 0x04, 0x00, 0x00, 0x00,
  0x08, 0x00, 0x0c, 0x00, 0x10, 0x00, 0x00, 0x00, 0x00, 0x00, 0x14, 0x00,
  0x14, 0x00, 0x00, 0x00, 0x44, 0x00, 0x00, 0x00, 0x01, 0x00, 0x00, 0x00,
  0x1c, 0x00, 0x00, 0x00, 0x14, 0x00, 0x00, 0x00, 0x04, 0x00, 0x00, 0x00,
  0x02, 0x00, 0x00, 0x00, 0xff, 0xff, 0xff, 0xff, 0x02, 0x00, 0x00, 0x00,
  0x9c, 0xff, 0xff, 0xff, 0x19, 0x00, 0x00, 0x00, 0x73, 0x65, 0x72, 0x76,
  0x69, 0x6e, 0x67, 0x5f, 0x64, 0x65, 0x66, 0x61, 0x75, 0x6c, 0x74, 0x5f,
  0x69, 0x6e, 0x70, 0x75, 0x74, 0x5f, 0x31, 0x3a, 0x30, 0x00, 0x00, 0x00,
  0x02, 0x00, 0x00, 0x00, 0x01, 0x00, 0x00, 0x00, 0x02, 0x00, 0x00, 0x00,
  0x06, 0x00, 0x00, 0x00, 0x68, 0x00, 0x00, 0x00, 0x4c, 0x00, 0x00, 0x00,
  0x30, 0x00, 0x00, 0x00, 0x28, 0x00, 0x00, 0x00, 0x14, 0x00, 0x00, 0x00,
  0x04, 0x00, 0x00, 0x00, 0xd4, 0xff, 0xff, 0xff, 0x00, 0x00, 0x00, 0x02,
  0x02, 0x00, 0x00, 0x00, 0xe0, 0xff, 0xff, 0xff, 0x00, 0x00, 0x00, 0x49,
  0x49, 0x00, 0x00, 0x00, 0x04, 0x00, 0x04, 0x00, 0x04, 0x00, 0x00, 0x00,
  0xf4, 0xff, 0xff, 0xff, 0x00, 0x00, 0x00, 0x2f, 0x2f, 0x00, 0x00, 0x00,
  0x0c, 0x00, 0x0c, 0x00, 0x07, 0x00, 0x00, 0x00, 0x00, 0x00, 0x08, 0x00,
  0x0c, 0x00, 0x00, 0x00, 0x00, 0x00, 0x00, 0x1c, 0x1c, 0x00, 0x00, 0x00,
  0x0c, 0x00, 0x10, 0x00, 0x07, 0x00, 0x00, 0x00, 0x08, 0x00, 0x0c, 0x00,
  0x0c, 0x00, 0x00, 0x00, 0x00, 0x00, 0x00, 0x09, 0x09, 0x00, 0x00, 0x00,
  0x09, 0x00, 0x00, 0x00
};
unsigned int actor_tflite_len = 9424;
